/* Copyright 2018 The TensorFlow Authors. All Rights Reserved.

Licensed under the Apache License, Version 2.0 (the "License");
you may not use this file except in compliance with the License.
You may obtain a copy of the License at

    http://www.apache.org/licenses/LICENSE-2.0

Unless required by applicable law or agreed to in writing, software
distributed under the License is distributed on an "AS IS" BASIS,
WITHOUT WARRANTIES OR CONDITIONS OF ANY KIND, either express or implied.
See the License for the specific language governing permissions and
limitations under the License.
==============================================================================*/

// Automatically created from a TensorFlow Lite flatbuffer using the command:
// xxd -i tiny_conv.tflite > tiny_conv_simple_features_model_data.cc
// See the README for a full description of the creation process.

#include "micro_features_tiny_conv_micro_features_model_data.h"

// We need to keep the data array aligned on some architectures.
#ifdef __has_attribute
#define HAVE_ATTRIBUTE(x) __has_attribute(x)
#else
#define HAVE_ATTRIBUTE(x) 0
#endif
#if HAVE_ATTRIBUTE(aligned) || (defined(__GNUC__) && !defined(__clang__))
#define DATA_ALIGN_ATTRIBUTE __attribute__((aligned(4)))
#else
#define DATA_ALIGN_ATTRIBUTE
#endif


const unsigned char g_tiny_conv_micro_features_model_data[] DATA_ALIGN_ATTRIBUTE = {
  0x1c, 0x00, 0x00, 0x00, 0x54, 0x46, 0x4c, 0x33, 0x00, 0x00, 0x12, 0x00,
  0x1c, 0x00, 0x04, 0x00, 0x08, 0x00, 0x0c, 0x00, 0x10, 0x00, 0x14, 0x00,
  0x00, 0x00, 0x18, 0x00, 0x12, 0x00, 0x00, 0x00, 0x03, 0x00, 0x00, 0x00,
  0x1c, 0x47, 0x00, 0x00, 0x10, 0x00, 0x00, 0x00, 0x1c, 0x00, 0x00, 0x00,
  0x2c, 0x00, 0x00, 0x00, 0x0c, 0x00, 0x00, 0x00, 0x01, 0x00, 0x00, 0x00,
  0xc0, 0x00, 0x00, 0x00, 0x01, 0x00, 0x00, 0x00, 0x94, 0x00, 0x00, 0x00,
  0x0f, 0x00, 0x00, 0x00, 0x54, 0x4f, 0x43, 0x4f, 0x20, 0x43, 0x6f, 0x6e,
  0x76, 0x65, 0x72, 0x74, 0x65, 0x64, 0x2e, 0x00, 0x0a, 0x00, 0x00, 0x00,
  0x60, 0x00, 0x00, 0x00, 0x54, 0x00, 0x00, 0x00, 0x48, 0x00, 0x00, 0x00,
  0x3c, 0x00, 0x00, 0x00, 0x34, 0x00, 0x00, 0x00, 0x2c, 0x00, 0x00, 0x00,
  0x20, 0x00, 0x00, 0x00, 0x18, 0x00, 0x00, 0x00, 0x10, 0x00, 0x00, 0x00,
  0x04, 0x00, 0x00, 0x00, 0x0e, 0xba, 0xff, 0xff, 0x38, 0x00, 0x00, 0x00,
  0xbc, 0xb9, 0xff, 0xff, 0xc0, 0xb9, 0xff, 0xff, 0x1e, 0xba, 0xff, 0xff,
  0xe0, 0x01, 0x00, 0x00, 0xcc, 0xb9, 0xff, 0xff, 0xd0, 0xb9, 0xff, 0xff,
  0x2e, 0xba, 0xff, 0xff, 0x60, 0x03, 0x00, 0x00, 0x36, 0xba, 0xff, 0xff,
  0x7c, 0x06, 0x00, 0x00, 0x3e, 0xba, 0xff, 0xff, 0x68, 0x45, 0x00, 0x00,
  0xec, 0xb9, 0xff, 0xff, 0x05, 0x00, 0x00, 0x00, 0x31, 0x2e, 0x35, 0x2e,
  0x30, 0x00, 0x00, 0x00, 0x08, 0x00, 0x0c, 0x00, 0x04, 0x00, 0x08, 0x00,
  0x08, 0x00, 0x00, 0x00, 0x08, 0x00, 0x00, 0x00, 0x09, 0x00, 0x00, 0x00,
  0x13, 0x00, 0x00, 0x00, 0x6d, 0x69, 0x6e, 0x5f, 0x72, 0x75, 0x6e, 0x74,
  0x69, 0x6d, 0x65, 0x5f, 0x76, 0x65, 0x72, 0x73, 0x69, 0x6f, 0x6e, 0x00,
  0x10, 0xfa, 0xff, 0xff, 0x20, 0x00, 0x00, 0x00, 0x14, 0x00, 0x00, 0x00,
  0x08, 0x00, 0x00, 0x00, 0x2c, 0x45, 0x00, 0x00, 0x01, 0x00, 0x00, 0x00,
  0x05, 0x00, 0x00, 0x00, 0x01, 0x00, 0x00, 0x00, 0x03, 0x00, 0x00, 0x00,
  0x08, 0x00, 0x00, 0x00, 0x04, 0x01, 0x00, 0x00, 0x9c, 0x44, 0x00, 0x00,
  0x8c, 0x00, 0x00, 0x00, 0x14, 0x00, 0x00, 0x00, 0xdc, 0x01, 0x00, 0x00,
  0x68, 0x01, 0x00, 0x00, 0x3c, 0x02, 0x00, 0x00, 0x50, 0x05, 0x00, 0x00,
  0x8e, 0xbb, 0xff, 0xff, 0x00, 0x00, 0x00, 0x03, 0x10, 0x00, 0x00, 0x00,
  0x08, 0x00, 0x00, 0x00, 0x1c, 0x00, 0x00, 0x00, 0x28, 0x00, 0x00, 0x00,
  0x04, 0x00, 0x00, 0x00, 0x01, 0x00, 0x00, 0x00, 0x31, 0x00, 0x00, 0x00,
  0x28, 0x00, 0x00, 0x00, 0x01, 0x00, 0x00, 0x00, 0x09, 0x00, 0x00, 0x00,
  0x52, 0x65, 0x73, 0x68, 0x61, 0x70, 0x65, 0x5f, 0x32, 0x00, 0x00, 0x00,
  0x94, 0xfa, 0xff, 0xff, 0x2c, 0x00, 0x00, 0x00, 0x20, 0x00, 0x00, 0x00,
  0x14, 0x00, 0x00, 0x00, 0x04, 0x00, 0x00, 0x00, 0x01, 0x00, 0x00, 0x00,
  0x00, 0x00, 0x00, 0x00, 0x00, 0x00, 0x00, 0x00, 0x01, 0x00, 0x00, 0x00,
  0xc6, 0xd0, 0xd0, 0x3d, 0x01, 0x00, 0x00, 0x00, 0xf5, 0xff, 0xcf, 0x41,
  0x01, 0x00, 0x00, 0x00, 0x00, 0x00, 0x00, 0x00, 0x02, 0xbc, 0xff, 0xff,
  0x00, 0x00, 0x00, 0x03, 0x10, 0x00, 0x00, 0x00, 0x07, 0x00, 0x00, 0x00,
  0x1c, 0x00, 0x00, 0x00, 0x24, 0x00, 0x00, 0x00, 0x04, 0x00, 0x00, 0x00,
  0x01, 0x00, 0x00, 0x00, 0x19, 0x00, 0x00, 0x00, 0x14, 0x00, 0x00, 0x00,
  0x08, 0x00, 0x00, 0x00, 0x04, 0x00, 0x00, 0x00, 0x52, 0x65, 0x6c, 0x75,
  0x00, 0x00, 0x00, 0x00, 0x04, 0xfb, 0xff, 0xff, 0x2c, 0x00, 0x00, 0x00,
  0x20, 0x00, 0x00, 0x00, 0x14, 0x00, 0x00, 0x00, 0x04, 0x00, 0x00, 0x00,
  0x01, 0x00, 0x00, 0x00, 0x00, 0x00, 0x00, 0x00, 0x00, 0x00, 0x00, 0x00,
  0x01, 0x00, 0x00, 0x00, 0xcf, 0x4f, 0x97, 0x3d, 0x01, 0x00, 0x00, 0x00,
  0x7f, 0xb8, 0x96, 0x41, 0x01, 0x00, 0x00, 0x00, 0x00, 0x00, 0x00, 0x00,
  0x72, 0xbc, 0xff, 0xff, 0x00, 0x00, 0x00, 0x02, 0x10, 0x00, 0x00, 0x00,
  0x06, 0x00, 0x00, 0x00, 0x10, 0x00, 0x00, 0x00, 0x1c, 0x00, 0x00, 0x00,
  0x01, 0x00, 0x00, 0x00, 0x08, 0x00, 0x00, 0x00, 0x0b, 0x00, 0x00, 0x00,
  0x43, 0x6f, 0x6e, 0x76, 0x32, 0x44, 0x5f, 0x62, 0x69, 0x61, 0x73, 0x00,
  0x64, 0xbc, 0xff, 0xff, 0x18, 0x00, 0x00, 0x00, 0x04, 0x00, 0x00, 0x00,
  0x01, 0x00, 0x00, 0x00, 0x00, 0x00, 0x00, 0x00, 0x00, 0x00, 0x00, 0x00,
  0x00, 0x00, 0x00, 0x00, 0x01, 0x00, 0x00, 0x00, 0x38, 0x6d, 0xb7, 0x38,
  0x20, 0x00, 0x00, 0x00, 0x1e, 0xff, 0xff, 0xff, 0x70, 0x01, 0x00, 0x00,
  0x00, 0x00, 0x00, 0x00, 0x35, 0xfc, 0xff, 0xff, 0xeb, 0xfc, 0xff, 0xff,
  0x00, 0x00, 0x00, 0x00, 0xe4, 0x00, 0x00, 0x00, 0xf8, 0xfe, 0xff, 0xff,
  0xea, 0xbc, 0xff, 0xff, 0x00, 0x00, 0x00, 0x03, 0x10, 0x00, 0x00, 0x00,
  0x05, 0x00, 0x00, 0x00, 0x14, 0x00, 0x00, 0x00, 0x24, 0x00, 0x00, 0x00,
  0x02, 0x00, 0x00, 0x00, 0x01, 0x00, 0x00, 0x00, 0x04, 0x00, 0x00, 0x00,
  0x0e, 0x00, 0x00, 0x00, 0x6c, 0x61, 0x62, 0x65, 0x6c, 0x73, 0x5f, 0x73,
  0x6f, 0x66, 0x74, 0x6d, 0x61, 0x78, 0x00, 0x00, 0xec, 0xfb, 0xff, 0xff,
  0x2c, 0x00, 0x00, 0x00, 0x20, 0x00, 0x00, 0x00, 0x14, 0x00, 0x00, 0x00,
  0x04, 0x00, 0x00, 0x00, 0x01, 0x00, 0x00, 0x00, 0x00, 0x00, 0x00, 0x00,
  0x00, 0x00, 0x00, 0x00, 0x01, 0x00, 0x00, 0x00, 0x00, 0x00, 0x80, 0x3b,
  0x01, 0x00, 0x00, 0x00, 0x00, 0x00, 0x7f, 0x3f, 0x01, 0x00, 0x00, 0x00,
  0x00, 0x00, 0x00, 0x00, 0x5a, 0xbd, 0xff, 0xff, 0x00, 0x00, 0x00, 0x03,
  0x10, 0x00, 0x00, 0x00, 0x04, 0x00, 0x00, 0x00, 0x14, 0x00, 0x00, 0x00,
  0x1c, 0x00, 0x00, 0x00, 0x02, 0x00, 0x00, 0x00, 0x01, 0x00, 0x00, 0x00,
  0x04, 0x00, 0x00, 0x00, 0x05, 0x00, 0x00, 0x00, 0x61, 0x64, 0x64, 0x5f,
  0x31, 0x00, 0x00, 0x00, 0x54, 0xfc, 0xff, 0xff, 0x2c, 0x00, 0x00, 0x00,
  0x20, 0x00, 0x00, 0x00, 0x14, 0x00, 0x00, 0x00, 0x04, 0x00, 0x00, 0x00,
  0x01, 0x00, 0x00, 0x00, 0x5d, 0x00, 0x00, 0x00, 0x00, 0x00, 0x00, 0x00,
  0x01, 0x00, 0x00, 0x00, 0xcd, 0x6c, 0xaa, 0x3d, 0x01, 0x00, 0x00, 0x00,
  0xb4, 0xb1, 0x57, 0x41, 0x01, 0x00, 0x00, 0x00, 0x1a, 0xa6, 0xf7, 0xc0,
  0xc2, 0xbd, 0xff, 0xff, 0x00, 0x00, 0x00, 0x03, 0x10, 0x00, 0x00, 0x00,
  0x03, 0x00, 0x00, 0x00, 0x1c, 0x00, 0x00, 0x00, 0x44, 0x00, 0x00, 0x00,
  0x04, 0x00, 0x00, 0x00, 0x01, 0x00, 0x00, 0x00, 0x0a, 0x00, 0x00, 0x00,
  0x08, 0x00, 0x00, 0x00, 0x08, 0x00, 0x00, 0x00, 0x25, 0x00, 0x00, 0x00,
  0x77, 0x65, 0x69, 0x67, 0x68, 0x74, 0x73, 0x5f, 0x71, 0x75, 0x61, 0x6e,
  0x74, 0x2f, 0x46, 0x61, 0x6b, 0x65, 0x51, 0x75, 0x61, 0x6e, 0x74, 0x57,
  0x69, 0x74, 0x68, 0x4d, 0x69, 0x6e, 0x4d, 0x61, 0x78, 0x56, 0x61, 0x72,
  0x73, 0x00, 0x00, 0x00, 0xe4, 0xfc, 0xff, 0xff, 0x30, 0x00, 0x00, 0x00,
  0x24, 0x00, 0x00, 0x00, 0x18, 0x00, 0x00, 0x00, 0x04, 0x00, 0x00, 0x00,
  0x01, 0x00, 0x00, 0x00, 0x82, 0x00, 0x00, 0x00, 0x00, 0x00, 0x00, 0x00,
  0x00, 0x00, 0x00, 0x00, 0x01, 0x00, 0x00, 0x00, 0xca, 0xdf, 0x60, 0x3a,
  0x01, 0x00, 0x00, 0x00, 0xad, 0xd2, 0xdb, 0x3d, 0x01, 0x00, 0x00, 0x00,
  0x68, 0x69, 0xe2, 0xbd, 0x80, 0x02, 0x00, 0x00, 0x87, 0xaf, 0x62, 0x84,
  0xb1, 0x7f, 0x59, 0x65, 0x7d, 0xd6, 0x8b, 0x99, 0xa1, 0x7a, 0x7c, 0x7f,
  0xd3, 0x83, 0x88, 0x96, 0xc9, 0x9d, 0x5a, 0x67, 0x76, 0xa6, 0x81, 0x9e,
  0x8c, 0x70, 0x99, 0x93, 0xf9, 0x5f, 0x75, 0x72, 0xaf, 0x91, 0x47, 0x64,
  0x6b, 0x6e, 0xb6, 0x83, 0x71, 0x75, 0x5a, 0x85, 0xc5, 0x27, 0xab, 0x47,
  0x9f, 0x96, 0x63, 0x7c, 0x62, 0x21, 0xc1, 0x61, 0x85, 0x91, 0x6a, 0x8b,
  0x59, 0xae, 0x4f, 0xb8, 0xcc, 0x9b, 0x6a, 0x77, 0x58, 0xdb, 0x63, 0xa8,
  0x9b, 0x9f, 0x90, 0x7d, 0xa8, 0x87, 0x66, 0xb4, 0xca, 0xb5, 0x78, 0x70,
  0x68, 0xa6, 0x69, 0x9b, 0x7c, 0xa6, 0xb6, 0x90, 0xe7, 0x62, 0x72, 0x8a,
  0x96, 0xa9, 0x63, 0x71, 0x6c, 0x74, 0xa3, 0x7f, 0x5c, 0x9a, 0x6c, 0x87,
  0xe2, 0x28, 0x99, 0x53, 0x7b, 0x93, 0x7d, 0x7a, 0x78, 0x35, 0xb2, 0x52,
  0x61, 0xa8, 0x7d, 0x9c, 0x49, 0xa8, 0x51, 0xd4, 0xc0, 0x8d, 0x73, 0x61,
  0x41, 0xd3, 0x5d, 0x8c, 0x93, 0x76, 0x87, 0x74, 0x91, 0x74, 0x59, 0xc3,
  0xb5, 0x93, 0x76, 0x59, 0x5c, 0x9d, 0x58, 0x8b, 0x71, 0x92, 0xb7, 0x7a,
  0xd5, 0x49, 0x56, 0x8f, 0x86, 0x88, 0x69, 0x6c, 0x57, 0x7a, 0x93, 0x77,
  0x50, 0x6d, 0x72, 0x78, 0xd8, 0x42, 0x7a, 0x54, 0x5f, 0x80, 0x97, 0x6b,
  0x8d, 0x52, 0x94, 0x44, 0x50, 0x68, 0x7f, 0x83, 0x4f, 0xa3, 0x79, 0xe7,
  0xc5, 0x52, 0x71, 0x84, 0x43, 0xca, 0x65, 0x87, 0x99, 0x4d, 0xb0, 0x82,
  0x9c, 0x6f, 0x6b, 0xce, 0xae, 0x58, 0x81, 0x70, 0x5c, 0x98, 0x5a, 0x79,
  0x7c, 0x52, 0xba, 0x89, 0xc7, 0x54, 0x4d, 0x94, 0x78, 0x5c, 0x58, 0x7f,
  0x5a, 0x8a, 0x83, 0x71, 0x5f, 0x57, 0x7d, 0x86, 0xe8, 0x5e, 0x5e, 0x55,
  0x3b, 0x56, 0x8f, 0x86, 0x97, 0x6a, 0x7e, 0x37, 0x50, 0x52, 0x83, 0x8a,
  0x49, 0x82, 0xb6, 0xfb, 0xb6, 0x3d, 0x73, 0x88, 0x43, 0xb4, 0x81, 0x75,
  0x9f, 0x46, 0xae, 0x70, 0x9a, 0x56, 0x85, 0xd6, 0x9a, 0x4b, 0x7b, 0x74,
  0x60, 0x87, 0x69, 0x6e, 0x8e, 0x3d, 0xb2, 0x7f, 0xb6, 0x54, 0x60, 0x8e,
  0x60, 0x56, 0x4e, 0x8b, 0x60, 0x9a, 0x76, 0x66, 0x6c, 0x56, 0x7e, 0x77,
  0xd9, 0x78, 0x50, 0x56, 0x27, 0x68, 0x8f, 0x8e, 0x88, 0x99, 0x58, 0x2e,
  0x53, 0x55, 0x89, 0x7d, 0x36, 0x86, 0xc1, 0xfd, 0xc2, 0x5b, 0x76, 0x9d,
  0x3d, 0x7d, 0xa2, 0x8a, 0xa5, 0x6f, 0xa4, 0x71, 0x9b, 0x54, 0x9f, 0xc4,
  0x8b, 0x91, 0x6d, 0x87, 0x60, 0x6a, 0x73, 0x6d, 0x9e, 0x92, 0xb6, 0x78,
  0xcd, 0x72, 0x6f, 0x74, 0x52, 0x81, 0x45, 0x9f, 0x6d, 0x88, 0x79, 0x6f,
  0x7d, 0x81, 0x7d, 0x6a, 0xea, 0x96, 0x42, 0x2e, 0x1a, 0x95, 0x87, 0xa1,
  0xa2, 0x94, 0x3a, 0x34, 0x5a, 0x92, 0x8c, 0x76, 0x34, 0x61, 0xd1, 0xff,
  0x9e, 0x64, 0x73, 0xa9, 0x35, 0x5c, 0xb2, 0x7c, 0x9d, 0xc3, 0xb5, 0x68,
  0x7a, 0x5c, 0xb1, 0xc1, 0x71, 0xae, 0x77, 0x9d, 0x6c, 0x58, 0x82, 0x6d,
  0xa6, 0xd3, 0xc8, 0x6f, 0xba, 0x68, 0x6d, 0x61, 0x3b, 0xb5, 0x45, 0xb6,
  0x8b, 0x87, 0x71, 0x62, 0x8e, 0xb7, 0x81, 0x6a, 0xf9, 0xa1, 0x33, 0x34,
  0x1f, 0xb8, 0x84, 0xaa, 0xb6, 0xa2, 0x39, 0x2f, 0x67, 0xc4, 0x94, 0x6e,
  0x3d, 0x4e, 0xd8, 0xea, 0x72, 0x8b, 0x6d, 0xa4, 0x22, 0x3d, 0xae, 0x7f,
  0x8a, 0xb0, 0x94, 0x6d, 0x57, 0x5f, 0x9b, 0x93, 0x5b, 0x91, 0x72, 0xa6,
  0x67, 0x4c, 0x8d, 0x62, 0xa5, 0xaf, 0xb5, 0x6e, 0x8d, 0x7b, 0x65, 0x46,
  0x4e, 0xa5, 0x3e, 0xc7, 0x87, 0x7f, 0x78, 0x6b, 0x9a, 0xa1, 0x7d, 0x5c,
  0xcc, 0xad, 0x33, 0x2c, 0x35, 0x9d, 0x7f, 0xb6, 0xba, 0xaf, 0x46, 0x44,
  0x78, 0xb9, 0x92, 0x6b, 0x3f, 0x43, 0xd0, 0xae, 0x32, 0x64, 0x5a, 0xa9,
  0x18, 0x2d, 0xcc, 0x70, 0x57, 0x92, 0x9a, 0x65, 0x42, 0x4c, 0xa7, 0x65,
  0x56, 0x64, 0x74, 0xbc, 0x4a, 0x3f, 0x88, 0x59, 0x94, 0x93, 0xb5, 0x75,
  0x41, 0x68, 0x70, 0x49, 0x5e, 0x66, 0x39, 0xd3, 0x53, 0x77, 0x85, 0x78,
  0x97, 0x6c, 0x80, 0x5c, 0x5d, 0x9a, 0x4e, 0x45, 0x62, 0x59, 0x7d, 0xc5,
  0x7b, 0xaf, 0x4c, 0x70, 0x8d, 0x71, 0x9c, 0x6c, 0x4f, 0x47, 0xd8, 0x48,
  0x02, 0x46, 0x52, 0x93, 0x1f, 0x1a, 0xbf, 0x47, 0x2a, 0x49, 0x72, 0x63,
  0x44, 0x48, 0xb4, 0x43, 0x4f, 0x54, 0x6a, 0xbd, 0x36, 0x28, 0x96, 0x3d,
  0x96, 0x4a, 0x9c, 0x71, 0x3d, 0x57, 0x7a, 0x3d, 0x7e, 0x2e, 0x47, 0xd8,
  0x04, 0x6c, 0x87, 0x7f, 0xa0, 0x43, 0x6e, 0x53, 0x0f, 0x92, 0x63, 0x48,
  0x7c, 0x3e, 0x81, 0xc8, 0x01, 0xba, 0x6f, 0x88, 0x97, 0x36, 0x8e, 0x67,
  0xda, 0xc0, 0xff, 0xff, 0x00, 0x00, 0x00, 0x03, 0x10, 0x00, 0x00, 0x00,
  0x02, 0x00, 0x00, 0x00, 0x14, 0x00, 0x00, 0x00, 0x54, 0x00, 0x00, 0x00,
  0x02, 0x00, 0x00, 0x00, 0x04, 0x00, 0x00, 0x00, 0xa0, 0x0f, 0x00, 0x00,
  0x31, 0x00, 0x00, 0x00, 0x77, 0x65, 0x69, 0x67, 0x68, 0x74, 0x73, 0x5f,
  0x71, 0x75, 0x61, 0x6e, 0x74, 0x5f, 0x31, 0x2f, 0x46, 0x61, 0x6b, 0x65,
  0x51, 0x75, 0x61, 0x6e, 0x74, 0x57, 0x69, 0x74, 0x68, 0x4d, 0x69, 0x6e,
  0x4d, 0x61, 0x78, 0x56, 0x61, 0x72, 0x73, 0x2f, 0x74, 0x72, 0x61, 0x6e,
  0x73, 0x70, 0x6f, 0x73, 0x65, 0x00, 0x00, 0x00, 0x0c, 0x00, 0x14, 0x00,
  0x04, 0x00, 0x08, 0x00, 0x0c, 0x00, 0x10, 0x00, 0x0c, 0x00, 0x00, 0x00,
  0x2c, 0x00, 0x00, 0x00, 0x20, 0x00, 0x00, 0x00, 0x14, 0x00, 0x00, 0x00,
  0x04, 0x00, 0x00, 0x00, 0x01, 0x00, 0x00, 0x00, 0x77, 0x00, 0x00, 0x00,
  0x00, 0x00, 0x00, 0x00, 0x01, 0x00, 0x00, 0x00, 0x2a, 0x8a, 0xd5, 0x39,
  0x01, 0x00, 0x00, 0x00, 0x81, 0xc3, 0x62, 0x3d, 0x01, 0x00, 0x00, 0x00,
  0xab, 0xfa, 0x44, 0xbd, 0x80, 0x3e, 0x00, 0x00, 0x97, 0x8f, 0x87, 0x6c,
  0x75, 0x68, 0x7b, 0x79, 0x56, 0x5a, 0x87, 0x9c, 0x83, 0x56, 0x72, 0x51,
  0x7a, 0x7c, 0x5c, 0x7e, 0x75, 0x73, 0x86, 0x7e, 0x69, 0xa1, 0x48, 0x8f,
  0x87, 0x49, 0x79, 0x7f, 0x7b, 0x7f, 0x7d, 0x6d, 0x48, 0x78, 0x6a, 0x6b,
  0x70, 0x9a, 0x5e, 0x8a, 0x5c, 0x53, 0x6d, 0x66, 0x78, 0x79, 0x6e, 0x85,
  0x73, 0x61, 0x75, 0x82, 0xa6, 0x74, 0x76, 0x74, 0x8a, 0x56, 0x76, 0x6f,
  0x85, 0xa7, 0x62, 0x80, 0x8c, 0x64, 0x4d, 0x92, 0x80, 0x7f, 0x5d, 0x7a,
  0x69, 0x89, 0x80, 0x77, 0x97, 0x71, 0x57, 0x92, 0xa0, 0x9d, 0x8a, 0x80,
  0x56, 0x50, 0x46, 0x88, 0x9f, 0x69, 0x9e, 0x8e, 0x79, 0x5a, 0x62, 0x7e,
  0x81, 0x98, 0x7e, 0x96, 0x56, 0x80, 0x4b, 0x9c, 0x51, 0x90, 0x90, 0x88,
  0x87, 0x6f, 0x52, 0x7d, 0x77, 0x74, 0x78, 0x9f, 0x94, 0x83, 0x4e, 0x88,
  0x8b, 0x93, 0xa8, 0x8e, 0xaa, 0x9d, 0x5c, 0xb1, 0x74, 0x75, 0x80, 0x87,
  0x8c, 0x95, 0x41, 0x8f, 0x7f, 0x66, 0x7c, 0x92, 0x70, 0x8c, 0x78, 0x9d,
  0x59, 0x80, 0x73, 0x7f, 0x91, 0x6f, 0x81, 0xa4, 0x99, 0x67, 0x99, 0x7a,
  0x4d, 0x4c, 0x51, 0x7d, 0x6c, 0x83, 0x83, 0x55, 0x68, 0x5c, 0x6a, 0x8e,
  0x78, 0x5c, 0x78, 0x41, 0x83, 0x5d, 0x99, 0x9b, 0x86, 0x6c, 0x54, 0x47,
  0x7b, 0x69, 0x49, 0x7a, 0x5a, 0x79, 0x53, 0x41, 0x8a, 0x85, 0x93, 0x82,
  0x6c, 0x77, 0x62, 0x34, 0x76, 0x6c, 0x84, 0x8e, 0x85, 0x99, 0x71, 0x5a,
  0x6f, 0x72, 0x92, 0x71, 0x82, 0x6e, 0x52, 0x48, 0x76, 0x75, 0x6a, 0x91,
  0x4f, 0x79, 0x64, 0x59, 0x8b, 0x7e, 0x47, 0x86, 0x5b, 0x6b, 0x5e, 0x53,
  0x85, 0x79, 0x79, 0x65, 0x6e, 0x72, 0x68, 0x5c, 0x4e, 0x76, 0x8e, 0x93,
  0x7d, 0x5d, 0x87, 0x62, 0x6b, 0x7b, 0x6b, 0x81, 0x7e, 0x5c, 0x64, 0x62,
  0x6b, 0x88, 0x82, 0x9f, 0x70, 0x69, 0x70, 0x6a, 0x8c, 0x7a, 0x64, 0x6d,
  0x7d, 0x81, 0x6b, 0x58, 0x7c, 0x82, 0x61, 0x8d, 0x7a, 0x58, 0x73, 0x6e,
  0x78, 0x52, 0x7e, 0x7d, 0x9b, 0x72, 0x66, 0x5c, 0x8b, 0x81, 0x6a, 0x98,
  0x6c, 0x7a, 0x7c, 0x85, 0x8f, 0x7d, 0x51, 0x89, 0x6b, 0x7c, 0x69, 0x75,
  0x8b, 0x9a, 0x50, 0x7e, 0x7d, 0x75, 0x64, 0x80, 0x72, 0x82, 0x68, 0x96,
  0x9c, 0x46, 0x6b, 0x7b, 0x76, 0x84, 0x71, 0x54, 0x71, 0x8e, 0x60, 0x55,
  0x55, 0x57, 0x63, 0x8e, 0x5c, 0x73, 0x52, 0x83, 0x67, 0x71, 0x7a, 0x9c,
  0x8e, 0x7d, 0x55, 0x45, 0x6f, 0x7f, 0x53, 0x5e, 0x74, 0x9b, 0x3a, 0x3f,
  0x55, 0x6a, 0x86, 0x86, 0x63, 0x70, 0x40, 0x23, 0x70, 0x58, 0x62, 0x43,
  0x69, 0x68, 0x66, 0x32, 0x61, 0x5d, 0x8c, 0x62, 0x4c, 0x87, 0x66, 0x43,
  0x62, 0x69, 0x80, 0x62, 0x60, 0x80, 0x93, 0x33, 0x58, 0x62, 0x5b, 0x73,
  0x5a, 0x8a, 0x76, 0x3a, 0x73, 0x6b, 0x8e, 0x7c, 0x76, 0x81, 0x70, 0x5f,
  0x6a, 0x6a, 0x86, 0x6a, 0x72, 0x76, 0x64, 0x5d, 0x8d, 0x64, 0x6c, 0x69,
  0x87, 0x86, 0x51, 0x34, 0x73, 0x7f, 0x69, 0x7c, 0x72, 0x8b, 0x62, 0x41,
  0x7a, 0x68, 0x53, 0x80, 0x5a, 0x84, 0x63, 0x5e, 0x85, 0x8e, 0x6c, 0x7f,
  0x4e, 0x90, 0x6c, 0x4e, 0x9e, 0x62, 0x6f, 0x6f, 0x7e, 0x78, 0x85, 0x78,
  0x80, 0x97, 0x6c, 0x54, 0x95, 0x96, 0x9b, 0x7a, 0x7d, 0x72, 0x7f, 0x76,
  0x79, 0x99, 0x99, 0x70, 0x9d, 0x73, 0x81, 0x9a, 0x87, 0x76, 0x84, 0x5c,
  0x63, 0x9f, 0x80, 0x97, 0x8c, 0x89, 0x7a, 0x84, 0x79, 0x94, 0x4d, 0x5a,
  0x77, 0x68, 0x6e, 0x48, 0x41, 0x9a, 0x85, 0x7d, 0x7d, 0x69, 0xa2, 0x6f,
  0x58, 0x8f, 0x50, 0x95, 0x51, 0x96, 0x84, 0x5b, 0x5b, 0x75, 0x8e, 0x55,
  0x55, 0x80, 0x67, 0x5a, 0x4a, 0x89, 0x68, 0x73, 0x57, 0x86, 0x7a, 0x72,
  0x3e, 0x77, 0x6d, 0x63, 0x6c, 0x78, 0x7f, 0x54, 0x60, 0x72, 0x5e, 0x46,
  0x4e, 0x74, 0x60, 0x63, 0x49, 0x89, 0x77, 0x68, 0x62, 0x86, 0x8b, 0x76,
  0x72, 0x5c, 0x69, 0x4d, 0x7f, 0x95, 0x87, 0x6f, 0x61, 0x5a, 0x7e, 0x5e,
  0x5b, 0x88, 0x7b, 0x9e, 0x69, 0x7e, 0xa1, 0x82, 0x84, 0x7b, 0x56, 0x99,
  0x70, 0x5d, 0x7e, 0x80, 0x6c, 0x68, 0x60, 0x87, 0x9c, 0x65, 0x67, 0x56,
  0x78, 0x7a, 0x71, 0x8b, 0x85, 0x60, 0x60, 0x5c, 0x71, 0x9d, 0x7b, 0x9e,
  0x68, 0x75, 0x7b, 0x59, 0x67, 0x8e, 0x67, 0x99, 0x90, 0xa3, 0x7a, 0x89,
  0x49, 0x72, 0x5f, 0x7a, 0x93, 0x6a, 0x84, 0x73, 0x9c, 0x63, 0x6f, 0x90,
  0xa8, 0x72, 0x7c, 0x51, 0x5d, 0x7a, 0x81, 0x8f, 0x5c, 0x6d, 0x53, 0x87,
  0x87, 0x81, 0x7e, 0xa7, 0x8b, 0x76, 0x77, 0xb2, 0x85, 0x70, 0x89, 0x9a,
  0x5c, 0x7b, 0x55, 0x8d, 0x62, 0x87, 0x9c, 0x40, 0x3a, 0x5f, 0x92, 0x86,
  0x5d, 0x85, 0xaf, 0x60, 0x39, 0x58, 0x6b, 0x5f, 0x5f, 0x7a, 0x6c, 0x51,
  0x47, 0x61, 0x5a, 0x60, 0x4c, 0x81, 0x5b, 0x55, 0x37, 0x63, 0x8d, 0x6e,
  0x5b, 0x78, 0x61, 0x46, 0x46, 0x64, 0x76, 0x4b, 0x7b, 0x54, 0x86, 0x6d,
  0x71, 0x84, 0x4e, 0x6c, 0x65, 0x93, 0x9d, 0x85, 0x58, 0x62, 0x87, 0x6d,
  0x60, 0x61, 0x9f, 0x68, 0x48, 0x8f, 0x96, 0x7b, 0x89, 0xab, 0x8a, 0x42,
  0x57, 0x59, 0x67, 0x9a, 0x5b, 0xa9, 0x98, 0x6c, 0x73, 0x83, 0x7a, 0x5f,
  0xa1, 0x80, 0x88, 0x7b, 0x6b, 0x72, 0x6c, 0x6e, 0x70, 0x64, 0x7a, 0x8b,
  0x7f, 0x94, 0x96, 0x49, 0x6c, 0x8b, 0xbb, 0x9a, 0x82, 0x7b, 0x7f, 0x66,
  0x64, 0x80, 0x99, 0x72, 0x88, 0x62, 0x6b, 0x57, 0x8f, 0xa3, 0x84, 0x92,
  0x70, 0x80, 0x92, 0x4c, 0x79, 0x75, 0x87, 0x75, 0xb2, 0x7a, 0x69, 0x7e,
  0x6a, 0x80, 0x82, 0x75, 0x93, 0x6e, 0x94, 0x66, 0x50, 0x7f, 0x79, 0xac,
  0x86, 0xa1, 0x54, 0x8c, 0x79, 0x6e, 0x5d, 0xb2, 0x89, 0x77, 0x66, 0xa4,
  0xa0, 0x8d, 0x8d, 0x86, 0x40, 0x88, 0x83, 0x65, 0x8a, 0x6d, 0x86, 0x3c,
  0x61, 0x60, 0x81, 0x75, 0x6f, 0x87, 0x77, 0x47, 0x39, 0x45, 0x48, 0x58,
  0x4a, 0x67, 0x64, 0x4c, 0x33, 0x98, 0x6c, 0x5d, 0x35, 0xa1, 0x98, 0x43,
  0x19, 0x7d, 0x7d, 0x43, 0x51, 0x8e, 0x75, 0x5c, 0x50, 0x62, 0x7b, 0x44,
  0x3d, 0x73, 0x88, 0x6c, 0x5a, 0x55, 0x5a, 0x56, 0x4e, 0xaa, 0x5c, 0x46,
  0x3b, 0x4b, 0x6e, 0x65, 0x71, 0x6e, 0x97, 0x42, 0x29, 0x8a, 0x57, 0x6d,
  0xa4, 0x77, 0x8f, 0x87, 0x67, 0x7a, 0x9c, 0x5e, 0x96, 0x8f, 0xc1, 0x55,
  0x71, 0x84, 0x5a, 0x6d, 0x80, 0x72, 0x9a, 0x72, 0x50, 0x8a, 0x85, 0x61,
  0xa5, 0x6e, 0xa8, 0x72, 0x78, 0x80, 0x80, 0x4e, 0x48, 0x7a, 0x92, 0x56,
  0xa6, 0x75, 0x8e, 0x7f, 0x73, 0xa1, 0x83, 0x94, 0x67, 0x69, 0x73, 0x61,
  0x7e, 0x92, 0xa9, 0x86, 0x7b, 0x65, 0x59, 0x60, 0x66, 0x97, 0xa2, 0x8a,
  0x6e, 0x62, 0x8a, 0x5b, 0x8b, 0x97, 0xa5, 0x78, 0x99, 0x87, 0x92, 0x45,
  0x6c, 0x7e, 0x91, 0x8a, 0x85, 0x8a, 0x8e, 0x8b, 0x90, 0x66, 0x85, 0x98,
  0x55, 0x85, 0x76, 0xa2, 0x9d, 0xa2, 0xb6, 0x99, 0x5c, 0x68, 0x8f, 0x7d,
  0x70, 0x7f, 0x90, 0x29, 0x49, 0x75, 0x73, 0x79, 0x5f, 0x85, 0x96, 0x6c,
  0x29, 0x81, 0x75, 0x81, 0x45, 0x91, 0x79, 0x68, 0x55, 0x41, 0x69, 0x48,
  0x72, 0x8f, 0x9c, 0x31, 0x40, 0x52, 0x8f, 0x58, 0x5f, 0x82, 0x7d, 0x58,
  0x6e, 0x58, 0x93, 0x4e, 0x2f, 0x6a, 0x9b, 0x33, 0x6d, 0x4b, 0x93, 0x43,
  0x5a, 0x86, 0x6d, 0x82, 0x48, 0x74, 0x54, 0x4d, 0x66, 0x94, 0x8c, 0x71,
  0x30, 0x79, 0x5b, 0x4b, 0x70, 0x5e, 0x7e, 0x68, 0x50, 0x98, 0x74, 0x52,
  0xa2, 0x8a, 0x8c, 0x7f, 0x77, 0x98, 0x84, 0x8f, 0x75, 0x9f, 0x9f, 0x55,
  0x6a, 0xa1, 0x9e, 0x75, 0x5a, 0x65, 0x6f, 0x6b, 0x8b, 0x8a, 0x9c, 0x72,
  0x7c, 0x7a, 0x8d, 0x8c, 0xa0, 0x6f, 0x89, 0x62, 0x58, 0x78, 0xa2, 0x90,
  0x84, 0x46, 0x7e, 0x70, 0x82, 0x8a, 0xb6, 0x6c, 0x77, 0x62, 0x77, 0x8d,
  0x89, 0xb2, 0x7c, 0x6b, 0x8b, 0x70, 0x7d, 0x39, 0x92, 0x88, 0x9b, 0x6c,
  0x7a, 0x56, 0x58, 0x43, 0x5f, 0xb2, 0xad, 0x66, 0x8c, 0x6f, 0xa0, 0x7d,
  0xaa, 0x98, 0x79, 0x77, 0x8f, 0x89, 0x83, 0x9d, 0x8b, 0x94, 0x86, 0xc3,
  0x59, 0x4c, 0x7e, 0x96, 0x59, 0x79, 0x99, 0x20, 0x39, 0x66, 0x9d, 0x76,
  0x58, 0x83, 0x86, 0x6a, 0x39, 0x67, 0x80, 0x7c, 0x56, 0xac, 0x86, 0x54,
  0x34, 0x65, 0x67, 0x56, 0x6b, 0x9e, 0x8e, 0x44, 0x48, 0x43, 0x7c, 0x5b,
  0x54, 0x8b, 0x8f, 0x45, 0x53, 0x8f, 0x81, 0x72, 0x3c, 0x9b, 0x84, 0x3b,
  0x4e, 0x63, 0x5b, 0x62, 0x74, 0x6d, 0x71, 0x46, 0x3d, 0x76, 0x96, 0x48,
  0x66, 0xb6, 0x7b, 0x85, 0x43, 0x4b, 0x8b, 0x7f, 0x6f, 0x99, 0x8e, 0x65,
  0x3c, 0x76, 0x93, 0x5b, 0x92, 0x7b, 0x78, 0x5d, 0x3e, 0x95, 0xa6, 0x6f,
  0x9a, 0x7f, 0x6c, 0x63, 0x8d, 0x77, 0x6e, 0x7b, 0x66, 0x7a, 0x7d, 0x96,
  0x9d, 0x78, 0x7c, 0x54, 0x98, 0x7e, 0x8f, 0x7d, 0x61, 0x8d, 0xac, 0x71,
  0x93, 0x7b, 0x80, 0x93, 0x89, 0x70, 0x72, 0x52, 0x5d, 0x81, 0x9d, 0x78,
  0x75, 0x59, 0x90, 0x37, 0x7f, 0x9e, 0x85, 0x87, 0x59, 0x5e, 0x99, 0x6a,
  0x63, 0x99, 0xac, 0x91, 0x6d, 0x7d, 0x98, 0x46, 0x5c, 0x8a, 0xa7, 0x6f,
  0x75, 0xa9, 0x85, 0x82, 0xa2, 0x7c, 0xa0, 0xa9, 0x7c, 0x9e, 0x6a, 0x9b,
  0x8b, 0x8f, 0x9d, 0x97, 0x43, 0x44, 0x8a, 0x77, 0x83, 0x6e, 0x95, 0x4a,
  0x5c, 0x85, 0x72, 0x70, 0x47, 0x92, 0x83, 0x5b, 0x41, 0x8e, 0x6a, 0x69,
  0x3e, 0x88, 0x95, 0x50, 0x41, 0x66, 0x5b, 0x68, 0x41, 0x92, 0x91, 0x54,
  0x3e, 0x89, 0x7b, 0x64, 0x2c, 0x6c, 0xaf, 0x59, 0x43, 0x57, 0x63, 0x50,
  0x49, 0x88, 0x7f, 0x47, 0x3e, 0x96, 0x64, 0x40, 0x3c, 0xbb, 0x8c, 0x8c,
  0x6f, 0x95, 0x68, 0x54, 0x75, 0x70, 0x89, 0x48, 0x58, 0x7c, 0x90, 0x59,
  0x85, 0x79, 0x88, 0x7e, 0x45, 0x6c, 0xa0, 0x9d, 0x84, 0x8d, 0x99, 0x65,
  0x53, 0x73, 0x6a, 0x5c, 0x74, 0x84, 0x78, 0x6c, 0x6b, 0x8f, 0x73, 0x7e,
  0x7c, 0x95, 0x61, 0x7f, 0x68, 0x9f, 0x71, 0x81, 0x66, 0x7d, 0x76, 0x7d,
  0x78, 0x85, 0x81, 0x78, 0x7a, 0x8f, 0x74, 0x79, 0x57, 0x60, 0x91, 0x55,
  0x6d, 0x94, 0x66, 0x7e, 0x4f, 0x93, 0x8b, 0x57, 0x82, 0x9c, 0x71, 0x93,
  0x53, 0x50, 0x84, 0x7a, 0x6b, 0xa0, 0x65, 0x8c, 0x67, 0x80, 0x9c, 0x39,
  0x71, 0x8d, 0x85, 0x7a, 0x69, 0x91, 0x7f, 0x83, 0xa7, 0x65, 0x9f, 0x5f,
  0x75, 0xab, 0xa3, 0x80, 0x89, 0x7f, 0x8a, 0x9d, 0x67, 0x66, 0x76, 0x91,
  0x5a, 0x93, 0x9d, 0x4a, 0x50, 0x70, 0x69, 0x67, 0x4c, 0x6a, 0x98, 0x72,
  0x23, 0x4e, 0x8f, 0x6c, 0x35, 0x79, 0xa7, 0x40, 0x23, 0x89, 0x63, 0x50,
  0x53, 0x9c, 0xac, 0x54, 0x4a, 0x7a, 0x4d, 0x6f, 0x40, 0x8e, 0x8b, 0x68,
  0x6f, 0x54, 0xa1, 0x6e, 0x3b, 0x77, 0x98, 0x4e, 0x54, 0x6c, 0x9e, 0x5c,
  0x43, 0x80, 0x7d, 0x69, 0x55, 0x9e, 0x6b, 0x67, 0x72, 0x9b, 0x79, 0x75,
  0x4f, 0x8a, 0x77, 0x6e, 0x86, 0xb1, 0x88, 0x65, 0x73, 0x54, 0x5d, 0x5b,
  0x8d, 0x86, 0x80, 0x6a, 0x5a, 0xa1, 0x7e, 0x79, 0x74, 0xb9, 0x6c, 0x6a,
  0x4c, 0x7d, 0x8d, 0x77, 0x73, 0x70, 0x8d, 0x71, 0x82, 0x65, 0x9a, 0x7f,
  0x77, 0x7e, 0x74, 0x6f, 0x7c, 0x72, 0x80, 0x58, 0xa2, 0x8b, 0x79, 0x5f,
  0x6d, 0x98, 0x8b, 0x63, 0x69, 0x85, 0x72, 0x80, 0x59, 0x74, 0x89, 0x5c,
  0x60, 0x7a, 0x6d, 0x98, 0x48, 0x80, 0xa0, 0x76, 0x61, 0xb9, 0x68, 0x8f,
  0x6c, 0x83, 0x59, 0x5d, 0x97, 0x95, 0x80, 0x72, 0x8d, 0x9d, 0x86, 0x85,
  0xb9, 0x85, 0x95, 0xa7, 0x62, 0xa3, 0x8a, 0x81, 0x92, 0x9b, 0x7f, 0xb4,
  0x46, 0x79, 0x76, 0x6c, 0x71, 0x8c, 0x9a, 0x46, 0x2e, 0x8b, 0x89, 0x95,
  0x36, 0x9d, 0x81, 0x48, 0x36, 0x41, 0x71, 0x3a, 0x3f, 0x82, 0x87, 0x22,
  0x46, 0x5d, 0x6c, 0x5c, 0x54, 0x86, 0xa1, 0x37, 0x44, 0x5b, 0x8e, 0x7d,
  0x49, 0xa2, 0xa1, 0x52, 0x59, 0x4a, 0x80, 0x47, 0x5d, 0x73, 0xb0, 0x2c,
  0x59, 0x85, 0x71, 0x39, 0x51, 0x92, 0x66, 0x75, 0x6c, 0x74, 0x69, 0x6d,
  0x6c, 0x95, 0x7c, 0x81, 0x36, 0x72, 0x6b, 0x69, 0x72, 0x96, 0x76, 0x4f,
  0x41, 0x79, 0x75, 0x61, 0x7a, 0xa8, 0x8b, 0x7a, 0x5b, 0xb2, 0x91, 0x78,
  0x66, 0x73, 0x81, 0x6c, 0x72, 0x90, 0x7d, 0x5c, 0x78, 0x97, 0x80, 0x5f,
  0x67, 0x8b, 0x79, 0x72, 0x6d, 0x7b, 0x6c, 0x71, 0x56, 0x65, 0x82, 0x7b,
  0x6c, 0x77, 0x7f, 0x63, 0x78, 0x9b, 0x8a, 0x52, 0x6d, 0x8a, 0x7f, 0x65,
  0x80, 0x69, 0x82, 0x54, 0x6c, 0x78, 0x75, 0x7b, 0x65, 0x7e, 0x76, 0x79,
  0x5d, 0xb0, 0x64, 0x79, 0x7a, 0x7d, 0x5e, 0x72, 0x81, 0x87, 0x87, 0x6d,
  0x85, 0x98, 0x6f, 0x87, 0x89, 0x91, 0x69, 0x75, 0x78, 0xae, 0x7b, 0x7e,
  0x87, 0x92, 0x80, 0xb4, 0x2f, 0x60, 0x57, 0x77, 0x80, 0x70, 0xa3, 0x59,
  0x61, 0x86, 0x79, 0x5e, 0x4f, 0xa9, 0x91, 0x45, 0x38, 0x57, 0x6d, 0x54,
  0x2f, 0x9b, 0x95, 0x5d, 0x40, 0x71, 0x84, 0x4f, 0x45, 0x84, 0x8f, 0x6b,
  0x2a, 0x53, 0x66, 0x6d, 0x58, 0x67, 0x8f, 0x5c, 0x4f, 0x4c, 0x5c, 0x62,
  0x3f, 0x6d, 0x99, 0x4a, 0x44, 0x73, 0x8f, 0x70, 0x50, 0xa8, 0x76, 0x5b,
  0x34, 0x57, 0x63, 0x7a, 0x58, 0x8d, 0x72, 0x7e, 0x2b, 0x72, 0x6a, 0x74,
  0x65, 0x82, 0x69, 0x56, 0x55, 0x85, 0x88, 0x52, 0x57, 0xa8, 0x87, 0x6e,
  0x5c, 0x81, 0x7b, 0x86, 0x8a, 0x86, 0x78, 0x54, 0x79, 0x8d, 0x8b, 0x7e,
  0x68, 0x93, 0x7e, 0x62, 0x61, 0x88, 0x7e, 0x89, 0x60, 0x8c, 0x76, 0x74,
  0x98, 0x7a, 0x93, 0x66, 0x83, 0xad, 0x5e, 0x71, 0x6a, 0x8c, 0x7f, 0x76,
  0x66, 0x99, 0x70, 0x6b, 0x45, 0x91, 0x70, 0x32, 0x7b, 0x85, 0x77, 0x73,
  0x46, 0x55, 0x66, 0x45, 0x8b, 0x82, 0x7d, 0x81, 0x87, 0x79, 0x87, 0x53,
  0x85, 0x95, 0x65, 0x70, 0x55, 0x8a, 0x8c, 0x62, 0x9a, 0x85, 0x6a, 0x74,
  0x8d, 0x98, 0x7b, 0x94, 0x95, 0xa3, 0x7a, 0x7b, 0x3b, 0x6c, 0x72, 0x76,
  0x83, 0x7f, 0xa8, 0x4a, 0x36, 0x49, 0x57, 0x61, 0x4b, 0xa1, 0x7b, 0x6b,
  0x1d, 0x7c, 0x85, 0x58, 0x3e, 0x7c, 0x9e, 0x33, 0x25, 0x7b, 0x7d, 0x50,
  0x2e, 0xa5, 0x9e, 0x5a, 0x56, 0x49, 0x78, 0x69, 0x43, 0x77, 0xac, 0x43,
  0x5e, 0x7b, 0x86, 0x3f, 0x57, 0xa9, 0x93, 0x43, 0x65, 0x6e, 0xa7, 0x51,
  0x32, 0x8a, 0x87, 0x70, 0x34, 0xa8, 0x8b, 0x61, 0x7a, 0x87, 0x82, 0x53,
  0x60, 0x6d, 0x62, 0x50, 0x6a, 0x6d, 0x82, 0x6f, 0x47, 0x74, 0x92, 0x6f,
  0x7d, 0x81, 0x83, 0x4f, 0x74, 0x65, 0x68, 0x70, 0x76, 0x86, 0x83, 0x76,
  0x82, 0x83, 0x7c, 0x56, 0x6d, 0x8c, 0x61, 0x88, 0x65, 0x9a, 0x9b, 0x5f,
  0x6e, 0xbb, 0x7c, 0x85, 0x7d, 0x9b, 0x8b, 0x99, 0x85, 0x90, 0x64, 0x7b,
  0x81, 0x90, 0x6c, 0x48, 0x78, 0x8e, 0x92, 0x95, 0x52, 0x74, 0x81, 0x82,
  0x48, 0xad, 0x7e, 0x9e, 0x70, 0x6c, 0x73, 0x7e, 0x74, 0xbd, 0x7a, 0x7f,
  0x71, 0x6c, 0x98, 0x3a, 0x7d, 0x84, 0x72, 0x7d, 0x85, 0x70, 0x84, 0x68,
  0x84, 0x9e, 0x59, 0x78, 0x8a, 0xa9, 0x8d, 0x7f, 0x83, 0xaa, 0x75, 0x9f,
  0x50, 0x9f, 0x7b, 0x7e, 0x6a, 0x8c, 0x87, 0x34, 0x60, 0x5f, 0x64, 0x4f,
  0x3f, 0x83, 0xa5, 0x54, 0x4e, 0x8c, 0x89, 0x3f, 0x58, 0xa1, 0x9e, 0x2e,
  0x32, 0x54, 0x61, 0x43, 0x3c, 0x97, 0xa7, 0x43, 0x3e, 0x59, 0x98, 0x5e,
  0x6b, 0x67, 0x9d, 0x5d, 0x3e, 0x94, 0x67, 0x65, 0x5b, 0x71, 0x94, 0x49,
  0x48, 0x92, 0x75, 0x73, 0x4c, 0x87, 0x8b, 0x3e, 0x41, 0x72, 0x8c, 0x5e,
  0x6d, 0xac, 0x94, 0x58, 0x56, 0x77, 0x59, 0x77, 0x7f, 0x90, 0x71, 0x7a,
  0x4d, 0x72, 0x65, 0x83, 0x65, 0xa1, 0x87, 0x68, 0x3f, 0x7d, 0x9a, 0x6d,
  0x74, 0x8b, 0x86, 0x56, 0x65, 0x72, 0x68, 0x7f, 0x73, 0x89, 0x72, 0x6b,
  0x51, 0x8d, 0x82, 0x6b, 0x6b, 0x7e, 0x79, 0x84, 0x4e, 0x88, 0x8b, 0x79,
  0x7e, 0x89, 0x79, 0x7a, 0x61, 0x81, 0x7c, 0x80, 0x73, 0x94, 0x94, 0x4a,
  0x7f, 0x8b, 0x87, 0x4e, 0x78, 0x7c, 0x76, 0x5a, 0x72, 0x94, 0x85, 0x55,
  0x81, 0x9d, 0x6a, 0x71, 0x71, 0x7c, 0x8e, 0x5f, 0x6e, 0xa2, 0x80, 0x85,
  0x51, 0x9d, 0xa8, 0x67, 0x88, 0x9f, 0x73, 0x80, 0x6d, 0xa6, 0x7c, 0x82,
  0x82, 0x7a, 0x8b, 0x80, 0x46, 0x7b, 0x90, 0x7a, 0x5f, 0x60, 0x9f, 0x5b,
  0x2b, 0x6a, 0x75, 0x7d, 0x36, 0x7a, 0xa0, 0x42, 0x65, 0x63, 0x7c, 0x4a,
  0x31, 0x84, 0x96, 0x3d, 0x11, 0x63, 0x4e, 0x45, 0x48, 0x6c, 0xc3, 0x54,
  0x4b, 0x6c, 0x94, 0x55, 0x44, 0x7f, 0xb8, 0x35, 0x7b, 0x57, 0x8e, 0x4c,
  0x31, 0x87, 0xa1, 0x49, 0x44, 0x88, 0x7d, 0x5d, 0x4e, 0x8e, 0x76, 0x80,
  0x4c, 0x68, 0x69, 0x67, 0x68, 0xb1, 0x82, 0x75, 0x45, 0x4a, 0x73, 0x4a,
  0x66, 0x96, 0x6a, 0x77, 0x40, 0x60, 0x7b, 0x72, 0x70, 0xb1, 0x93, 0x6a,
  0x4d, 0x57, 0x75, 0x77, 0x69, 0x72, 0x6b, 0x5b, 0x71, 0x93, 0x87, 0x43,
  0x7b, 0x8a, 0x5e, 0x63, 0x96, 0x65, 0x90, 0x6d, 0x7f, 0xa0, 0x87, 0x7f,
  0x6a, 0x7b, 0x95, 0x87, 0x92, 0xaf, 0x7c, 0x4a, 0x87, 0x76, 0x86, 0x86,
  0x6c, 0xb1, 0x71, 0x73, 0x6f, 0x56, 0x92, 0x52, 0x6b, 0x8e, 0x6e, 0x9f,
  0x69, 0x85, 0xa5, 0x6b, 0x5d, 0x9b, 0x83, 0x7b, 0x6b, 0x8f, 0x8c, 0x41,
  0x6f, 0x8a, 0x73, 0x4b, 0x76, 0x7f, 0x8a, 0x5b, 0x75, 0x78, 0x72, 0x98,
  0x74, 0xa8, 0x8e, 0x81, 0x6a, 0x87, 0x74, 0x70, 0x55, 0x7f, 0x71, 0x7e,
  0x64, 0x78, 0x9d, 0x53, 0x59, 0x5e, 0x68, 0x72, 0x65, 0x79, 0xaa, 0x34,
  0x3e, 0x84, 0x61, 0x4f, 0x48, 0xa5, 0x9f, 0x53, 0x1d, 0x43, 0x8f, 0x54,
  0x38, 0x91, 0xac, 0x43, 0x3f, 0x72, 0x70, 0x3c, 0x3d, 0x86, 0xad, 0x29,
  0x2e, 0x6f, 0x69, 0x40, 0x45, 0xa0, 0x9c, 0x51, 0x7b, 0x8a, 0x9a, 0x55,
  0x62, 0x72, 0x85, 0x4b, 0x32, 0x75, 0x88, 0x65, 0x6b, 0x60, 0x82, 0x72,
  0x52, 0x96, 0x7c, 0x55, 0x71, 0x6b, 0x9a, 0x69, 0x6e, 0x65, 0x6b, 0x85,
  0x4c, 0x94, 0x77, 0x4e, 0x71, 0x77, 0x6d, 0x99, 0x73, 0xa1, 0x74, 0x80,
  0x68, 0x7c, 0x83, 0x65, 0x57, 0x7c, 0x6b, 0x70, 0x89, 0x81, 0x69, 0x63,
  0x85, 0x9b, 0x5c, 0x7b, 0x6a, 0x82, 0x84, 0x96, 0x82, 0x8d, 0x65, 0x7e,
  0x3e, 0x76, 0x65, 0x5f, 0x75, 0x9a, 0x6b, 0x53, 0x58, 0x92, 0x6b, 0x33,
  0x6f, 0xb6, 0x80, 0x79, 0x78, 0x56, 0x68, 0x5f, 0x4e, 0xa5, 0x66, 0x8e,
  0x58, 0x82, 0x84, 0x45, 0x7c, 0xa7, 0x6e, 0x7b, 0x4c, 0x89, 0x8d, 0x69,
  0x7c, 0xb0, 0x68, 0x7b, 0x95, 0x9a, 0x9d, 0x82, 0x7f, 0xa9, 0x7c, 0x76,
  0x51, 0x7b, 0x6a, 0x6c, 0x6c, 0x74, 0x87, 0x49, 0x32, 0x77, 0x8d, 0x8e,
  0x38, 0x7b, 0x9d, 0x5e, 0x34, 0x71, 0x67, 0x3a, 0x28, 0x85, 0xa8, 0x49,
  0x4f, 0x71, 0x79, 0x3b, 0x3b, 0x9d, 0xbb, 0x1d, 0x47, 0x56, 0x7e, 0x75,
  0x27, 0x69, 0xc4, 0x58, 0x55, 0x79, 0xa6, 0x31, 0x39, 0x9e, 0xa0, 0x75,
  0x3f, 0x88, 0x83, 0x5a, 0x47, 0xad, 0x92, 0x60, 0x48, 0x82, 0x77, 0x51,
  0x7b, 0x85, 0x88, 0x80, 0x51, 0x82, 0x86, 0x61, 0x64, 0x73, 0x7a, 0x71,
  0x4a, 0x51, 0x78, 0x79, 0x76, 0x93, 0x95, 0x74, 0x58, 0x81, 0x58, 0x5e,
  0x78, 0x97, 0x68, 0x5b, 0x82, 0x93, 0x95, 0x55, 0x56, 0x8c, 0x72, 0x63,
  0x75, 0x7c, 0x7d, 0x7a, 0x65, 0x9d, 0x63, 0x5e, 0x7d, 0x66, 0x89, 0x70,
  0x86, 0x87, 0x59, 0x66, 0x7e, 0x78, 0x61, 0x64, 0x63, 0xa6, 0x76, 0x6b,
  0x50, 0x82, 0x71, 0x4a, 0x71, 0xaf, 0x7b, 0x68, 0x46, 0x57, 0x91, 0x77,
  0x5b, 0x9c, 0x7a, 0x6f, 0x56, 0x67, 0x8f, 0x5f, 0x7a, 0x9a, 0x67, 0x63,
  0x79, 0xa6, 0x6a, 0x67, 0x71, 0xb9, 0x67, 0x6b, 0x6b, 0xc0, 0x8c, 0x92,
  0x77, 0xa6, 0x78, 0x8c, 0x64, 0x65, 0x87, 0x85, 0x6f, 0x71, 0x97, 0x5e,
  0x6f, 0x82, 0x80, 0x66, 0x3f, 0x85, 0xa1, 0x4b, 0x5a, 0x6f, 0x53, 0x6d,
  0x4b, 0x78, 0x87, 0x39, 0x40, 0x58, 0x64, 0x39, 0x3f, 0x70, 0xc0, 0x51,
  0x52, 0x53, 0x59, 0x5b, 0x44, 0x89, 0xa1, 0x70, 0x51, 0x61, 0x72, 0x53,
  0x54, 0x82, 0xa1, 0x5e, 0x6a, 0x9d, 0x96, 0x52, 0x37, 0x88, 0x6c, 0x73,
  0x23, 0x86, 0x6c, 0x76, 0x49, 0x93, 0x6e, 0x47, 0x5e, 0x87, 0x60, 0x79,
  0x82, 0x8b, 0x76, 0x70, 0x66, 0x91, 0x7e, 0x85, 0x70, 0x97, 0x97, 0x6f,
  0x76, 0x7b, 0x6e, 0x78, 0x75, 0x9e, 0x76, 0x75, 0x63, 0x75, 0x66, 0x6e,
  0x58, 0xb6, 0x6e, 0x8d, 0x5b, 0x5b, 0x7e, 0x86, 0x78, 0x81, 0x96, 0x6d,
  0x87, 0x9d, 0x66, 0x81, 0x71, 0x71, 0x6e, 0x73, 0x65, 0x82, 0x79, 0x5c,
  0x60, 0x9e, 0x84, 0x6f, 0x4d, 0x53, 0x8b, 0x40, 0x70, 0xa6, 0x76, 0x5a,
  0x6d, 0x5e, 0x86, 0x65, 0x6b, 0xb5, 0x66, 0x52, 0x72, 0x73, 0x64, 0x4e,
  0x59, 0x8e, 0x86, 0x77, 0x5b, 0x62, 0x8f, 0x75, 0x8d, 0xaa, 0x66, 0x6f,
  0x71, 0x92, 0x83, 0x83, 0x5b, 0x8f, 0x7d, 0x7c, 0x53, 0x64, 0x8a, 0x9d,
  0x7f, 0x63, 0x84, 0x5a, 0x4f, 0x69, 0x78, 0x6b, 0x19, 0x94, 0x91, 0x69,
  0x39, 0x4d, 0x82, 0x5f, 0x58, 0x8f, 0x9b, 0x5c, 0x44, 0x57, 0x74, 0x49,
  0x3e, 0xa9, 0xb6, 0x5d, 0x2e, 0x78, 0x70, 0x54, 0x40, 0x99, 0xc0, 0x54,
  0x49, 0x82, 0x80, 0x42, 0x4d, 0x9a, 0xb8, 0x4c, 0x6c, 0x9a, 0x93, 0x7e,
  0x5a, 0x60, 0x73, 0x4b, 0x31, 0x6e, 0x7b, 0x78, 0x4c, 0xa8, 0x6c, 0x73,
  0x3a, 0x7a, 0x7b, 0x4a, 0x66, 0x93, 0x74, 0x5d, 0x42, 0x78, 0x6c, 0x72,
  0x82, 0x79, 0x84, 0x7d, 0x33, 0x52, 0x6f, 0x7f, 0x6d, 0xae, 0x6f, 0x79,
  0x5f, 0x56, 0x6e, 0x81, 0x5d, 0x8b, 0x73, 0x74, 0x78, 0x7d, 0x8a, 0x74,
  0x7b, 0x8b, 0x6d, 0x61, 0x70, 0x98, 0x82, 0x62, 0x5c, 0xc0, 0x5a, 0x91,
  0x7a, 0x78, 0x78, 0x53, 0x87, 0x9f, 0x69, 0x70, 0x60, 0x81, 0x67, 0x54,
  0x48, 0xbe, 0x70, 0x64, 0x58, 0x60, 0x76, 0x62, 0x6d, 0x8c, 0x7b, 0x78,
  0x69, 0x5a, 0x84, 0x61, 0x6b, 0x79, 0x79, 0x6c, 0x7c, 0x70, 0x8c, 0x8e,
  0x8b, 0x71, 0x6a, 0x84, 0x76, 0x92, 0x7e, 0x8c, 0x70, 0xa6, 0x79, 0x8e,
  0x6c, 0x6c, 0x80, 0x6f, 0x6e, 0x91, 0xc6, 0x48, 0x64, 0x85, 0x68, 0x78,
  0x66, 0x7a, 0xb3, 0x45, 0x55, 0x79, 0x78, 0x5c, 0x37, 0xa1, 0xab, 0x2a,
  0x40, 0x5a, 0x6f, 0x4c, 0x4a, 0x69, 0xb5, 0x62, 0x40, 0x84, 0x82, 0x5b,
  0x5b, 0x89, 0xc5, 0x59, 0x4c, 0x80, 0x69, 0x51, 0x4d, 0x8d, 0xb1, 0x56,
  0x71, 0x6f, 0x65, 0x72, 0x47, 0x9d, 0x6f, 0x68, 0x4d, 0x95, 0x80, 0x7a,
  0x41, 0x81, 0x74, 0x5b, 0x5c, 0x74, 0x84, 0x72, 0x70, 0x92, 0x86, 0x69,
  0x59, 0x67, 0x85, 0x81, 0x70, 0x86, 0x8b, 0x4a, 0x5b, 0x71, 0x90, 0x75,
  0x73, 0x95, 0x7a, 0x6d, 0x86, 0x6c, 0x60, 0x62, 0x60, 0x91, 0x6d, 0x6d,
  0x7d, 0x69, 0x84, 0x58, 0x62, 0xb2, 0x6d, 0x7d, 0x92, 0x54, 0x72, 0x8e,
  0x77, 0x79, 0x75, 0x79, 0x6a, 0x7c, 0x84, 0x53, 0x59, 0x73, 0x7c, 0x93,
  0x4a, 0x88, 0x9e, 0x26, 0x67, 0x85, 0x7d, 0x77, 0x59, 0x78, 0x8a, 0x66,
  0x57, 0xb8, 0x7b, 0x7f, 0x60, 0x8e, 0xa2, 0x53, 0x77, 0x92, 0x5f, 0x6a,
  0x54, 0x8f, 0x88, 0x75, 0x82, 0x9e, 0x6d, 0x7e, 0xa1, 0x92, 0x7f, 0x7f,
  0x97, 0x9e, 0x6f, 0x84, 0x5f, 0x5c, 0x80, 0x83, 0x8c, 0x66, 0xb8, 0x47,
  0x6d, 0x7b, 0x87, 0x53, 0x4d, 0x78, 0xb3, 0x5b, 0x39, 0x88, 0x7b, 0x72,
  0x48, 0x61, 0xa4, 0x33, 0x45, 0x3e, 0x6a, 0x4f, 0x5e, 0x9c, 0xcd, 0x2b,
  0x77, 0x87, 0x80, 0x80, 0x4b, 0x71, 0xcb, 0x4a, 0x2d, 0x86, 0xa2, 0x53,
  0x57, 0xa9, 0xbc, 0x28, 0x67, 0x83, 0x84, 0x83, 0x4e, 0x82, 0x7b, 0x81,
  0x49, 0x7f, 0x9c, 0x47, 0x3e, 0x8d, 0x8b, 0x54, 0x34, 0x66, 0x69, 0x78,
  0x54, 0x8d, 0x8a, 0x3a, 0x5f, 0x79, 0x63, 0x92, 0x8e, 0xa1, 0x84, 0x50,
  0x51, 0x66, 0x7d, 0x79, 0x7b, 0x6a, 0x89, 0x59, 0x66, 0x65, 0x6c, 0x6e,
  0x6b, 0x93, 0x74, 0x59, 0x91, 0x68, 0x92, 0x86, 0xa0, 0x97, 0x6e, 0x83,
  0x7a, 0x84, 0x8a, 0x9a, 0x8f, 0x93, 0x84, 0x7e, 0x7e, 0x87, 0x6d, 0x6f,
  0x51, 0x9e, 0x66, 0x81, 0x49, 0x73, 0x83, 0x47, 0x5e, 0x93, 0x86, 0x84,
  0x72, 0x83, 0x7d, 0x6d, 0x5c, 0x80, 0x83, 0x6c, 0x4c, 0x8e, 0x88, 0x78,
  0x87, 0x94, 0x75, 0x8f, 0x76, 0x9d, 0x9a, 0x5d, 0x77, 0x7f, 0x68, 0x6f,
  0x63, 0x8e, 0x86, 0x90, 0x88, 0x86, 0x86, 0x8c, 0x4b, 0x76, 0x57, 0x66,
  0x85, 0x7d, 0xda, 0x4b, 0x41, 0x64, 0x6e, 0x7e, 0x25, 0x7c, 0xa1, 0x32,
  0x4f, 0x63, 0x66, 0x5f, 0x3d, 0x62, 0xd3, 0x1c, 0x22, 0x5a, 0x5a, 0x4d,
  0x4e, 0x7b, 0xee, 0x24, 0x54, 0x4a, 0x7b, 0x8a, 0x4b, 0x66, 0xcc, 0x34,
  0x48, 0x71, 0x89, 0x72, 0x3d, 0x72, 0xad, 0x24, 0x47, 0xa5, 0x5f, 0x56,
  0x48, 0xa5, 0x8f, 0x3e, 0x48, 0x76, 0x8e, 0x55, 0x6f, 0x7d, 0x90, 0x43,
  0x30, 0x67, 0x7f, 0x65, 0x88, 0x99, 0x94, 0x64, 0x53, 0x7e, 0x61, 0x77,
  0x87, 0x8e, 0xa2, 0x66, 0x43, 0x83, 0x69, 0x9a, 0x73, 0x75, 0x76, 0x69,
  0x7a, 0x77, 0x58, 0x8b, 0x6a, 0x9d, 0x6f, 0x67, 0x79, 0x69, 0xb1, 0x7d,
  0x58, 0x7e, 0x67, 0x86, 0x97, 0x8c, 0x80, 0x73, 0x8a, 0x81, 0x69, 0x95,
  0x81, 0x69, 0x98, 0x46, 0x71, 0x96, 0x7e, 0x65, 0x5e, 0x6a, 0x77, 0x51,
  0x89, 0xa7, 0x7a, 0x78, 0x4d, 0x6a, 0x7e, 0x32, 0x4d, 0xa2, 0x75, 0x7d,
  0x7a, 0x86, 0x9f, 0x6d, 0x89, 0x8c, 0x7a, 0xa2, 0x56, 0x8e, 0x68, 0x67,
  0x8a, 0x8e, 0x64, 0x69, 0x79, 0x78, 0x6a, 0x84, 0x85, 0x7c, 0x77, 0xae,
  0x70, 0x9c, 0x7b, 0x61, 0x89, 0x6f, 0xe0, 0x89, 0x30, 0x65, 0x69, 0x70,
  0x62, 0x7e, 0xae, 0x58, 0x4b, 0x50, 0x8a, 0x36, 0x3c, 0x7b, 0xb8, 0x46,
  0x23, 0x47, 0x68, 0x36, 0x49, 0x94, 0xdf, 0x36, 0x3f, 0x83, 0x8d, 0x69,
  0x7d, 0x7c, 0xfb, 0x65, 0x1e, 0x67, 0x76, 0x33, 0x4e, 0x94, 0xd0, 0x3d,
  0x66, 0x89, 0x76, 0x3f, 0x5c, 0x8b, 0xa4, 0x53, 0x47, 0x63, 0x72, 0x4b,
  0x5b, 0x6a, 0xa2, 0x2f, 0x1e, 0x53, 0x73, 0x7a, 0x5d, 0x8a, 0x9d, 0x59,
  0x45, 0x7f, 0x91, 0x65, 0x83, 0x92, 0x9f, 0x66, 0x65, 0x78, 0x60, 0x68,
  0x77, 0x72, 0x9e, 0x5f, 0x48, 0x88, 0x72, 0x58, 0x6f, 0x83, 0x8a, 0x66,
  0x72, 0x63, 0x92, 0x64, 0xa1, 0x72, 0x7b, 0x75, 0x9f, 0x76, 0x84, 0x6a,
  0x6f, 0x9b, 0x7a, 0x88, 0x7a, 0x78, 0x5c, 0x6e, 0x6b, 0xb2, 0x8a, 0x88,
  0x59, 0x49, 0x4b, 0x44, 0x5a, 0x89, 0x81, 0x7d, 0x72, 0x89, 0x7a, 0x3e,
  0x68, 0xa3, 0x82, 0x53, 0x6f, 0x5c, 0xa2, 0x6b, 0x75, 0x9e, 0x8c, 0x7b,
  0x7f, 0x72, 0x9c, 0x80, 0x73, 0x70, 0x6d, 0x98, 0x5d, 0x76, 0x9f, 0x8e,
  0x81, 0x93, 0x6e, 0x92, 0x6c, 0x62, 0x60, 0x81, 0x6b, 0x84, 0xdc, 0x87,
  0x5d, 0x89, 0x6a, 0x9e, 0x95, 0x8b, 0xd9, 0x71, 0x8a, 0x59, 0x5e, 0x52,
  0x66, 0x9e, 0xb5, 0x91, 0x53, 0x88, 0x75, 0x03, 0x70, 0x8e, 0xef, 0x7f,
  0x73, 0xc9, 0x57, 0x30, 0x98, 0x86, 0xe5, 0x65, 0x65, 0x86, 0x7d, 0x45,
  0x8f, 0x7b, 0xc6, 0x94, 0x6d, 0xc0, 0x5b, 0x70, 0x8a, 0x90, 0x94, 0x7c,
  0x5b, 0x72, 0x6a, 0x28, 0x6a, 0x99, 0x85, 0x8b, 0x4c, 0x70, 0x5e, 0x40,
  0x6d, 0x5f, 0x7e, 0x8a, 0x5d, 0x81, 0x78, 0x65, 0x81, 0xa5, 0xb8, 0x7e,
  0x86, 0x8d, 0x72, 0x40, 0x99, 0x67, 0xa0, 0x7c, 0x76, 0x7f, 0x8a, 0x4d,
  0x7e, 0x7a, 0x85, 0x9c, 0x81, 0x6a, 0x7e, 0x71, 0x95, 0x7d, 0x8f, 0x70,
  0x7b, 0x6d, 0x6d, 0x90, 0x8b, 0x91, 0x8b, 0x88, 0x7f, 0x68, 0x8d, 0x60,
  0x6c, 0x97, 0x7b, 0x67, 0x80, 0x81, 0x63, 0x3c, 0x7c, 0x7d, 0x90, 0x91,
  0x7c, 0x7c, 0x89, 0x47, 0x6c, 0x6f, 0x76, 0xa2, 0x6f, 0x55, 0x78, 0x56,
  0x6e, 0xb9, 0x64, 0x63, 0x5f, 0x89, 0x8f, 0x91, 0x7d, 0xa5, 0x75, 0x82,
  0x5a, 0x73, 0x6e, 0xa5, 0x96, 0x91, 0x75, 0x6e, 0x3f, 0xa9, 0xa0, 0x79,
  0x9f, 0x70, 0xa7, 0x87, 0x46, 0xb2, 0x76, 0x71, 0x96, 0x5e, 0xad, 0x55,
  0x65, 0xae, 0x62, 0x36, 0x54, 0x7c, 0x9b, 0x96, 0x66, 0xc7, 0x45, 0x0b,
  0x85, 0x5e, 0xd5, 0x6d, 0x63, 0xdf, 0x85, 0x4c, 0x86, 0x8b, 0xca, 0x6a,
  0x7e, 0xd9, 0x52, 0x49, 0x9d, 0x8d, 0x97, 0x8c, 0x7b, 0xbb, 0x5f, 0x4f,
  0x91, 0x5f, 0x7a, 0x5a, 0x55, 0x98, 0x80, 0x1d, 0x7c, 0x6d, 0x6e, 0x59,
  0x48, 0x96, 0x48, 0x26, 0x6d, 0x67, 0x90, 0x5e, 0x7e, 0x9f, 0x6d, 0x3d,
  0x8e, 0x75, 0x8a, 0x9f, 0x69, 0xb8, 0x5e, 0x48, 0x73, 0x6e, 0x8f, 0x61,
  0x55, 0x80, 0x82, 0x4e, 0x8b, 0x6b, 0x7e, 0x7b, 0x73, 0xae, 0x4f, 0x60,
  0x86, 0x73, 0x78, 0x82, 0x8a, 0x7a, 0x6f, 0x82, 0x96, 0x6b, 0x69, 0x5a,
  0x61, 0x93, 0x94, 0x3c, 0x72, 0x51, 0x86, 0x5a, 0x80, 0xa0, 0x7e, 0x2c,
  0x66, 0x6d, 0x79, 0x80, 0x8e, 0x85, 0x5c, 0x34, 0x62, 0x54, 0x63, 0x94,
  0x5f, 0x6b, 0x60, 0x70, 0x70, 0x6f, 0x7a, 0x77, 0x7d, 0x67, 0x76, 0x9e,
  0x88, 0x80, 0x5c, 0x70, 0x8e, 0x70, 0x93, 0x9b, 0xa0, 0x87, 0x58, 0x57,
  0x54, 0x74, 0x82, 0x64, 0x67, 0x78, 0x6d, 0x73, 0x6a, 0x77, 0x7f, 0x60,
  0x92, 0x8a, 0x6e, 0x75, 0x65, 0x6d, 0x87, 0x63, 0x7c, 0x70, 0x82, 0x98,
  0x7c, 0x65, 0x78, 0x75, 0x48, 0x8a, 0x6c, 0x8b, 0x83, 0x9d, 0x78, 0x97,
  0x83, 0x7d, 0x9a, 0x6c, 0x7a, 0x8e, 0x77, 0x62, 0x7b, 0x91, 0x71, 0x6c,
  0x9e, 0x73, 0x71, 0x82, 0x90, 0x99, 0x7c, 0x82, 0x84, 0x4b, 0x65, 0x61,
  0x7c, 0x76, 0x74, 0x7f, 0x6c, 0x77, 0x7c, 0x71, 0x58, 0x64, 0x7d, 0x8c,
  0x64, 0xa4, 0x64, 0x85, 0x7f, 0x76, 0x96, 0x75, 0x90, 0x8a, 0x5e, 0x74,
  0x8d, 0x80, 0x5f, 0x7b, 0x99, 0x93, 0x54, 0xa3, 0x53, 0x97, 0x56, 0x87,
  0x98, 0x84, 0x80, 0x8e, 0x64, 0x6d, 0x51, 0x92, 0x70, 0x7d, 0x68, 0x87,
  0x84, 0x75, 0x68, 0x7b, 0x62, 0x9c, 0x6a, 0x6d, 0x95, 0x6b, 0x6e, 0x9a,
  0x95, 0x96, 0x57, 0x5e, 0x75, 0x62, 0x89, 0x80, 0x67, 0x60, 0x94, 0x77,
  0x6c, 0x7c, 0x6d, 0x82, 0x8c, 0x7d, 0x83, 0x73, 0x92, 0xa2, 0x6c, 0x88,
  0x7a, 0x59, 0x76, 0x69, 0x67, 0x76, 0x61, 0x75, 0x62, 0x84, 0x7c, 0x73,
  0x77, 0x8e, 0x81, 0x6f, 0x67, 0x85, 0x5c, 0x8e, 0x9a, 0x8f, 0x88, 0x84,
  0x99, 0x82, 0x75, 0x81, 0x7e, 0xa0, 0x70, 0x92, 0x7e, 0x7c, 0x71, 0x4e,
  0x7d, 0x79, 0x6f, 0xa7, 0x85, 0x9e, 0x66, 0x90, 0x6a, 0x72, 0x70, 0x9d,
  0x49, 0x77, 0x84, 0x6f, 0x6c, 0x7d, 0x81, 0x6a, 0x62, 0x60, 0x84, 0x59,
  0x50, 0x57, 0x6a, 0x9a, 0x7c, 0x77, 0x83, 0x93, 0x83, 0x7a, 0x7c, 0x8b,
  0x7f, 0x92, 0x74, 0x5e, 0x75, 0x7c, 0x73, 0x89, 0x53, 0x60, 0x8f, 0x79,
  0x8f, 0x6e, 0x82, 0x7f, 0x4b, 0x4b, 0x49, 0x55, 0x4b, 0x56, 0x80, 0x87,
  0x77, 0x84, 0x58, 0x82, 0x68, 0x81, 0x79, 0x89, 0x64, 0x67, 0x84, 0x4f,
  0x6d, 0x88, 0x7b, 0x87, 0x77, 0x88, 0x4b, 0x7d, 0x50, 0x85, 0x5c, 0x8f,
  0x87, 0x91, 0x68, 0x67, 0x57, 0x7d, 0x5f, 0x8d, 0x80, 0x9b, 0x7d, 0x83,
  0x80, 0x81, 0x7e, 0x93, 0x84, 0x5a, 0x79, 0x54, 0x64, 0x86, 0x8d, 0x66,
  0x7d, 0x82, 0x65, 0x5e, 0x7a, 0x8f, 0x70, 0x7a, 0x73, 0x8c, 0x81, 0x85,
  0x80, 0x62, 0x49, 0x81, 0x82, 0x98, 0x9c, 0x66, 0x90, 0x99, 0x75, 0x83,
  0x73, 0x90, 0x79, 0x8a, 0x63, 0x64, 0x4e, 0x70, 0x7e, 0x96, 0x87, 0x5b,
  0x74, 0x82, 0x7a, 0x91, 0x5a, 0x7d, 0x7b, 0x6c, 0x5d, 0x86, 0x8b, 0x79,
  0x7d, 0x75, 0x59, 0x7c, 0x7c, 0xa1, 0x67, 0x7a, 0x60, 0x70, 0x77, 0x9e,
  0x88, 0x83, 0x75, 0x81, 0x66, 0x75, 0x7d, 0x72, 0x9b, 0x93, 0x7f, 0x93,
  0x83, 0x9a, 0x8e, 0x7f, 0x71, 0x70, 0x8e, 0x93, 0x83, 0x6d, 0x69, 0x8e,
  0x7e, 0x5c, 0x97, 0x77, 0x7c, 0x94, 0x78, 0x8c, 0x50, 0x74, 0x8b, 0x82,
  0x65, 0x70, 0x58, 0xa3, 0x7b, 0xac, 0x7a, 0x8c, 0x77, 0x86, 0x66, 0x7d,
  0x74, 0x77, 0x5a, 0x7d, 0x6a, 0x5e, 0x72, 0x74, 0x86, 0x55, 0x61, 0x71,
  0x50, 0x6c, 0x67, 0x7d, 0x64, 0x7e, 0xa1, 0x8e, 0x71, 0x72, 0x8c, 0x61,
  0x6e, 0x75, 0x6d, 0xa9, 0x8f, 0x86, 0x67, 0x47, 0x76, 0x84, 0x97, 0x9e,
  0x6c, 0x8b, 0x85, 0x7a, 0x5f, 0x78, 0x65, 0x97, 0x90, 0x98, 0x5d, 0x82,
  0x8c, 0x73, 0x81, 0x8f, 0x5f, 0x7d, 0x5e, 0x6e, 0x78, 0x7c, 0x6e, 0x91,
  0x99, 0x65, 0x89, 0x7e, 0x6d, 0x86, 0x7b, 0x72, 0x95, 0x9d, 0x96, 0x69,
  0x74, 0x61, 0x64, 0x85, 0x9e, 0x9d, 0x77, 0x96, 0x81, 0x72, 0x62, 0x77,
  0x98, 0x7d, 0x60, 0x88, 0x60, 0x6f, 0x6c, 0x83, 0x72, 0x7a, 0x9b, 0x71,
  0x8d, 0x6f, 0x66, 0x78, 0x8d, 0x78, 0x77, 0x7a, 0x69, 0x8b, 0x7c, 0x7b,
  0x60, 0x79, 0x56, 0x90, 0x9e, 0x89, 0x76, 0x70, 0x45, 0x87, 0x85, 0x87,
  0x90, 0x8e, 0x6c, 0x69, 0x7f, 0x81, 0x95, 0x85, 0x7e, 0x95, 0x85, 0x7d,
  0xac, 0x9c, 0x79, 0x82, 0x89, 0x70, 0x79, 0x78, 0x74, 0x63, 0x63, 0xb2,
  0xa6, 0x90, 0x72, 0x75, 0x89, 0x62, 0x52, 0x92, 0x91, 0x56, 0x73, 0x7a,
  0x55, 0x5b, 0x49, 0x70, 0x80, 0x63, 0x8e, 0x94, 0x41, 0x61, 0x48, 0x9f,
  0x95, 0x8e, 0x8e, 0x99, 0x66, 0xa1, 0x79, 0x8e, 0x70, 0x84, 0x5c, 0x7a,
  0x83, 0x86, 0x56, 0x61, 0x57, 0x74, 0x57, 0x76, 0x6a, 0x80, 0x74, 0x9a,
  0x76, 0x66, 0x6e, 0x91, 0x96, 0xa1, 0x7b, 0x74, 0x76, 0x50, 0x72, 0x80,
  0x8a, 0x98, 0x7a, 0x92, 0x73, 0x86, 0x4e, 0x71, 0x5d, 0x74, 0x80, 0x8d,
  0x78, 0x91, 0x85, 0x7d, 0x95, 0x89, 0x90, 0x96, 0x70, 0x7d, 0x82, 0x77,
  0x90, 0x7a, 0x73, 0x6d, 0x60, 0xa0, 0x7e, 0x5f, 0x8d, 0x7c, 0x98, 0xaf,
  0x83, 0x9b, 0x74, 0x6a, 0x8b, 0x73, 0x85, 0x8b, 0x80, 0x7a, 0x64, 0x9c,
  0x80, 0x60, 0x72, 0x83, 0x79, 0x6f, 0x7d, 0x8b, 0x7b, 0x73, 0x7f, 0x8f,
  0x74, 0xa3, 0x77, 0x81, 0x52, 0x6e, 0x75, 0x96, 0x93, 0x7b, 0x78, 0x65,
  0x67, 0x81, 0x5c, 0xa0, 0x7f, 0x89, 0x99, 0x7a, 0x7d, 0x8e, 0x7e, 0xa0,
  0x60, 0x71, 0x6f, 0x80, 0xa3, 0x8f, 0x6e, 0xa8, 0x8d, 0x74, 0x65, 0x88,
  0x91, 0x84, 0x6f, 0x97, 0x82, 0x88, 0x62, 0x58, 0x7e, 0x79, 0x47, 0xb4,
  0xa1, 0x8e, 0x6b, 0x65, 0x68, 0x7e, 0x47, 0x99, 0x84, 0x6a, 0x81, 0x84,
  0x54, 0x65, 0x4f, 0x71, 0x92, 0x85, 0x6d, 0x6b, 0x61, 0x6a, 0x75, 0x76,
  0x67, 0x83, 0x5b, 0x81, 0x67, 0x5f, 0x85, 0x65, 0x64, 0x7b, 0x7b, 0x6d,
  0x83, 0x9a, 0x66, 0x75, 0x7a, 0x6c, 0x66, 0x86, 0x89, 0x74, 0x6b, 0x9b,
  0x61, 0x6d, 0x7a, 0x86, 0x63, 0x92, 0x69, 0x8d, 0x79, 0x62, 0x7d, 0x6f,
  0x8d, 0x60, 0x8a, 0x88, 0x8b, 0x65, 0x75, 0x6b, 0x96, 0x52, 0x80, 0x97,
  0x6b, 0x9e, 0x78, 0x9a, 0x86, 0x61, 0x92, 0x69, 0x66, 0x78, 0x65, 0x73,
  0x8a, 0x75, 0x79, 0x9e, 0x94, 0x69, 0x67, 0x7e, 0x6b, 0x63, 0x6d, 0x66,
  0x6f, 0x79, 0x81, 0x8b, 0x84, 0x73, 0x8c, 0x74, 0x90, 0x5a, 0x79, 0x7d,
  0x7b, 0x75, 0x6e, 0x9d, 0x82, 0x71, 0x94, 0x9f, 0x6a, 0x55, 0x7f, 0x97,
  0x9e, 0x7a, 0x72, 0x84, 0x63, 0x5c, 0x7a, 0x96, 0x81, 0x74, 0x69, 0x63,
  0x7a, 0x71, 0x7a, 0x8a, 0x7a, 0x77, 0x5a, 0x88, 0x9f, 0x9d, 0x6d, 0xaa,
  0x66, 0x6a, 0x6f, 0x6d, 0x86, 0x9f, 0x59, 0xe5, 0x86, 0x83, 0x5f, 0x98,
  0x6c, 0xc0, 0x3c, 0xce, 0x97, 0x65, 0x88, 0x76, 0x53, 0x8b, 0x49, 0xa3,
  0x84, 0x85, 0x84, 0x86, 0x4e, 0x6c, 0x6e, 0x8d, 0x6b, 0x6c, 0x5b, 0x5a,
  0x5b, 0x6e, 0x67, 0x8f, 0x81, 0x93, 0x78, 0x69, 0x66, 0x76, 0x75, 0x8f,
  0x65, 0x6a, 0x4a, 0x61, 0x5d, 0x8f, 0x75, 0x83, 0x91, 0x6d, 0x56, 0x7b,
  0x7c, 0x76, 0x87, 0xa2, 0x6f, 0x63, 0x59, 0x64, 0x7a, 0x8a, 0x7d, 0x97,
  0x85, 0x6c, 0x74, 0x6d, 0x72, 0x93, 0x79, 0x88, 0x5f, 0x7b, 0x88, 0x85,
  0x85, 0x7a, 0x8c, 0x7b, 0x7f, 0x5a, 0x74, 0xb3, 0x85, 0x69, 0x8e, 0x8a,
  0x6b, 0x78, 0x63, 0x79, 0x7a, 0x5e, 0x8a, 0xa0, 0x94, 0x5e, 0x7a, 0x7a,
  0x89, 0x7a, 0x5c, 0x56, 0x87, 0x79, 0x74, 0x9b, 0x87, 0x6d, 0x83, 0xac,
  0x8a, 0x6c, 0x83, 0x7c, 0xaa, 0x86, 0x7d, 0x95, 0x8c, 0x60, 0x82, 0x8c,
  0x5d, 0x68, 0x57, 0x9a, 0x96, 0x6c, 0x7e, 0x82, 0x87, 0x7f, 0x79, 0xa8,
  0x94, 0x9e, 0x86, 0x7b, 0x8c, 0xa3, 0x83, 0xaa, 0x67, 0x73, 0x7d, 0x72,
  0x93, 0xa2, 0x53, 0xc2, 0x7b, 0x6b, 0x69, 0x7e, 0x96, 0xb5, 0x69, 0xe2,
  0x90, 0x67, 0x63, 0x79, 0x64, 0x92, 0x61, 0xc7, 0xba, 0x93, 0x6e, 0x77,
  0x48, 0xa1, 0x49, 0xa2, 0x90, 0x8b, 0x72, 0x52, 0x48, 0x93, 0x6a, 0xa4,
  0x94, 0x6f, 0x80, 0x58, 0x6a, 0x8a, 0x65, 0x99, 0x5a, 0x86, 0x86, 0x5d,
  0x56, 0x60, 0x6d, 0xb5, 0x89, 0x96, 0x67, 0x78, 0x80, 0x72, 0x61, 0x7b,
  0x53, 0x6d, 0x78, 0x70, 0x6e, 0x95, 0x73, 0x96, 0x5d, 0x58, 0x73, 0x68,
  0x7b, 0xa1, 0x80, 0x8c, 0x8f, 0x6f, 0x68, 0x68, 0x82, 0x8b, 0x75, 0x83,
  0x6b, 0x3c, 0x9c, 0x7f, 0x57, 0x97, 0x87, 0x9e, 0x66, 0x71, 0x6f, 0x82,
  0x7c, 0x6a, 0x88, 0x73, 0x65, 0x8a, 0x6e, 0x6d, 0x90, 0x70, 0x7d, 0x9c,
  0x8b, 0x7f, 0x82, 0x7d, 0x8e, 0x82, 0x78, 0x64, 0x7e, 0x6a, 0x7d, 0x8d,
  0x8e, 0x8b, 0x74, 0x79, 0x83, 0x5d, 0x69, 0x6c, 0xaf, 0x8a, 0x7b, 0xa0,
  0x88, 0x82, 0x91, 0x95, 0x46, 0x7e, 0x5d, 0x88, 0x9a, 0x92, 0x79, 0x71,
  0x75, 0x7c, 0x64, 0xba, 0x96, 0x98, 0x8d, 0x81, 0x68, 0x82, 0x7e, 0xa4,
  0x7a, 0x72, 0x71, 0x6d, 0x8e, 0x88, 0x60, 0xcc, 0x76, 0x7e, 0x56, 0x7e,
  0xa1, 0xb8, 0x6a, 0xe7, 0x97, 0x64, 0x77, 0x81, 0x7b, 0x93, 0x49, 0xaa,
  0x8b, 0x7b, 0x72, 0x74, 0x65, 0x93, 0x38, 0x86, 0xa4, 0x6e, 0x69, 0x6f,
  0x38, 0x98, 0x60, 0x95, 0x97, 0x69, 0x8a, 0x58, 0x75, 0x73, 0x79, 0xa9,
  0x78, 0x83, 0x81, 0x7f, 0x6e, 0x9a, 0x59, 0xb2, 0x90, 0x61, 0x74, 0x75,
  0x77, 0x7c, 0x88, 0x73, 0x7a, 0x6d, 0x67, 0x7c, 0x76, 0xb8, 0x6a, 0x80,
  0x68, 0x53, 0x83, 0x6e, 0x5e, 0xaf, 0x9a, 0x91, 0x88, 0x65, 0x72, 0x70,
  0x73, 0x6e, 0x7d, 0x92, 0x6b, 0x57, 0x9f, 0x6a, 0x7f, 0x81, 0x90, 0x8f,
  0x5a, 0x51, 0x93, 0x8a, 0x92, 0x8c, 0x7e, 0x73, 0x74, 0x5f, 0x81, 0x8d,
  0x8b, 0x8f, 0x89, 0x9a, 0x8b, 0x76, 0x89, 0x86, 0x82, 0x73, 0x71, 0x75,
  0x58, 0x47, 0x7f, 0x91, 0xa6, 0x73, 0x77, 0x8c, 0x84, 0x6c, 0x73, 0x6e,
  0xb4, 0x8c, 0x50, 0xa8, 0x98, 0x6e, 0x94, 0xa1, 0x61, 0x81, 0x50, 0xb9,
  0x91, 0x7d, 0x5d, 0x7c, 0x5a, 0x93, 0x6b, 0xbd, 0x9f, 0x6a, 0x8a, 0x72,
  0x67, 0xab, 0x80, 0x84, 0x65, 0x8d, 0x69, 0x71, 0x92, 0xb0, 0x72, 0xb0,
  0x72, 0x69, 0x7f, 0x8a, 0x93, 0xa3, 0x65, 0xd1, 0x85, 0x78, 0x7c, 0x8d,
  0x73, 0xae, 0x4e, 0xb7, 0xbd, 0x9b, 0x91, 0x8c, 0x58, 0xb2, 0x37, 0xa8,
  0x9c, 0x6e, 0x86, 0x82, 0x57, 0x89, 0x44, 0x8c, 0x80, 0x6a, 0x7b, 0x62,
  0x62, 0x76, 0x55, 0xad, 0x96, 0x72, 0x7e, 0x77, 0x66, 0x76, 0x71, 0xb9,
  0x7d, 0x59, 0x7d, 0x7c, 0x58, 0x9a, 0x82, 0x8a, 0x72, 0x88, 0x82, 0x68,
  0x66, 0x83, 0x78, 0xb0, 0x5c, 0x6e, 0x61, 0x60, 0x5e, 0xab, 0x7d, 0x90,
  0x83, 0x56, 0x7d, 0x6d, 0x5f, 0x93, 0x78, 0x99, 0x92, 0x5d, 0x75, 0x79,
  0x59, 0xa3, 0x7f, 0x96, 0x8b, 0x5f, 0x8f, 0x84, 0x63, 0xb3, 0x83, 0x78,
  0x5d, 0x64, 0x84, 0x92, 0x80, 0x7d, 0x7d, 0x7f, 0x81, 0x5b, 0x78, 0x8d,
  0xb4, 0x7a, 0x54, 0x78, 0x8c, 0x5c, 0x78, 0x9b, 0x80, 0xa5, 0x65, 0x87,
  0x89, 0x66, 0x7b, 0x81, 0x94, 0xb5, 0x4d, 0x90, 0x97, 0x5e, 0x99, 0x96,
  0x6d, 0x95, 0x68, 0xa0, 0x9c, 0x7f, 0x6b, 0x8e, 0x65, 0x8b, 0x5e, 0xad,
  0x98, 0x5a, 0x7d, 0x7e, 0x7c, 0xbe, 0x70, 0xa4, 0x52, 0x62, 0x7e, 0x6f,
  0x91, 0xb7, 0x52, 0xcc, 0x72, 0x7d, 0x79, 0x82, 0xa1, 0xa5, 0x6f, 0xc9,
  0x84, 0x76, 0x6a, 0x8a, 0x84, 0x93, 0x40, 0xae, 0xae, 0x63, 0x84, 0x94,
  0x70, 0xa3, 0x3d, 0x83, 0xc6, 0x71, 0x72, 0x81, 0x6c, 0x88, 0x3c, 0x9c,
  0x96, 0x54, 0x7b, 0x7d, 0x5a, 0x88, 0x75, 0xa5, 0x79, 0x66, 0x96, 0x6a,
  0x6e, 0x99, 0x6f, 0xb0, 0x77, 0x63, 0x7e, 0x5a, 0x6c, 0xa3, 0x79, 0x89,
  0x6a, 0x82, 0x8c, 0x8e, 0x84, 0xa4, 0x91, 0x96, 0x59, 0x55, 0x87, 0x6d,
  0x67, 0x84, 0x83, 0xb2, 0x7a, 0x2c, 0x82, 0x7c, 0x53, 0x88, 0x7a, 0xa5,
  0x84, 0x50, 0x84, 0x65, 0x84, 0x8d, 0x7c, 0x97, 0x77, 0x42, 0x8e, 0x94,
  0x9d, 0x88, 0x95, 0x87, 0x77, 0x6b, 0x8e, 0x9d, 0x5a, 0x82, 0x7c, 0x7b,
  0x8f, 0x87, 0x6d, 0x9e, 0x96, 0x6e, 0x59, 0x9f, 0x73, 0x68, 0x87, 0xc7,
  0x78, 0x86, 0x60, 0x89, 0x73, 0x6a, 0x68, 0x91, 0xab, 0x8f, 0x5c, 0x99,
  0x94, 0x61, 0x82, 0xa7, 0x82, 0xaa, 0x5a, 0xc4, 0xa7, 0x7e, 0x6b, 0x99,
  0x6e, 0xa2, 0x74, 0xad, 0xa8, 0x71, 0x95, 0x77, 0x7e, 0xc5, 0x89, 0xa6,
  0x8d, 0x61, 0x96, 0x6c, 0x9d, 0xbc, 0x5c, 0xb0, 0x78, 0x50, 0x70, 0x8d,
  0xb9, 0xc5, 0x74, 0xd4, 0x9b, 0x7c, 0x79, 0x8d, 0x8a, 0x9b, 0x47, 0xc6,
  0xb9, 0x9a, 0x76, 0x8c, 0x71, 0xb2, 0x33, 0x9e, 0x98, 0x56, 0x7a, 0x8d,
  0x6e, 0xa0, 0x44, 0x8f, 0x93, 0x5b, 0x8a, 0x6e, 0x71, 0x6b, 0x86, 0xaf,
  0x7c, 0x6a, 0x90, 0x63, 0x6d, 0x74, 0x69, 0xcc, 0x7c, 0x6f, 0x6b, 0x5a,
  0x57, 0xa3, 0x7d, 0x7d, 0x78, 0x44, 0x8d, 0x89, 0x71, 0xa6, 0x81, 0x95,
  0x61, 0x52, 0x69, 0x62, 0x72, 0x96, 0x67, 0xa9, 0x98, 0x3f, 0x79, 0x86,
  0x5d, 0x6b, 0x92, 0xaf, 0x82, 0x54, 0x85, 0x69, 0x8d, 0x7c, 0x71, 0x92,
  0x8f, 0x3e, 0x9b, 0x79, 0x87, 0x98, 0x90, 0x83, 0x81, 0x58, 0x95, 0x8a,
  0x6d, 0x78, 0x74, 0x79, 0x82, 0x62, 0x7f, 0x9e, 0x89, 0x78, 0x55, 0x8e,
  0x83, 0x59, 0x91, 0xbc, 0x5c, 0x93, 0x65, 0x9d, 0x9b, 0x50, 0x88, 0x7f,
  0xb9, 0x98, 0x63, 0x9c, 0x9e, 0x83, 0x90, 0x9a, 0x79, 0xa1, 0x51, 0xb5,
  0xab, 0x71, 0x5f, 0xa7, 0x6a, 0x7f, 0x80, 0x9a, 0x89, 0x8f, 0x7d, 0x93,
  0x79, 0xab, 0x81, 0xa4, 0x69, 0x6a, 0x87, 0x77, 0x99, 0xba, 0x5f, 0xb2,
  0x81, 0x67, 0x6f, 0x65, 0x93, 0xa3, 0x67, 0xc1, 0x86, 0x62, 0x63, 0x6c,
  0x7c, 0x85, 0x43, 0xb6, 0x9b, 0x57, 0x76, 0x85, 0x87, 0xa4, 0x3a, 0xa7,
  0xab, 0x74, 0x8e, 0x7c, 0x73, 0xa3, 0x49, 0x83, 0x84, 0x50, 0x82, 0x59,
  0x7a, 0x9d, 0x62, 0xad, 0x74, 0x52, 0x92, 0x77, 0x74, 0x8d, 0x62, 0x9e,
  0x8e, 0x59, 0x7d, 0x83, 0x62, 0x70, 0x62, 0x85, 0x70, 0x48, 0x66, 0x8f,
  0x83, 0xb4, 0x75, 0x90, 0x5b, 0x42, 0x6a, 0x5c, 0x62, 0x75, 0x83, 0x91,
  0x85, 0x3c, 0x6e, 0x75, 0x57, 0x89, 0x7f, 0xa1, 0xa3, 0x2f, 0x90, 0x6e,
  0x80, 0x94, 0x79, 0x82, 0x92, 0x54, 0x71, 0x98, 0x5a, 0x75, 0x84, 0x79,
  0x6f, 0x47, 0x88, 0x8b, 0x6e, 0xa0, 0x75, 0x93, 0x83, 0x77, 0x7b, 0x84,
  0x91, 0x50, 0x69, 0x52, 0x7e, 0x4a, 0x92, 0xa6, 0x75, 0x9e, 0x3c, 0xbc,
  0x9e, 0x60, 0x69, 0x9b, 0xc1, 0x9d, 0x72, 0x9e, 0x9d, 0x5a, 0x78, 0xa7,
  0x78, 0xad, 0x5a, 0xb3, 0xa6, 0x6c, 0x72, 0x98, 0x6f, 0x9f, 0x8d, 0xa4,
  0x80, 0x6c, 0x8a, 0x79, 0x67, 0x89, 0x9b, 0x9d, 0x8b, 0x4d, 0x71, 0x80,
  0x9f, 0xb0, 0x72, 0xb5, 0x6d, 0x92, 0x83, 0x84, 0x90, 0xa1, 0x64, 0xb6,
  0x97, 0x7b, 0x75, 0x7c, 0x8e, 0xa0, 0x40, 0xc0, 0xae, 0x80, 0x86, 0x86,
  0x7c, 0xb6, 0x42, 0xc0, 0xc4, 0x68, 0x82, 0x71, 0x84, 0x99, 0x3c, 0xa6,
  0xab, 0x5e, 0x8d, 0x77, 0x89, 0x7d, 0x70, 0xaa, 0x6f, 0x71, 0x68, 0x6f,
  0x4a, 0x64, 0x6a, 0x8f, 0x6a, 0x64, 0x7f, 0x88, 0x4d, 0xb0, 0x70, 0x8a,
  0x68, 0x56, 0x6f, 0x6d, 0x62, 0xa5, 0x68, 0xa2, 0x69, 0x40, 0x83, 0x7f,
  0x78, 0x90, 0x5c, 0x95, 0x87, 0x2a, 0x82, 0x7c, 0x65, 0x70, 0x98, 0x9e,
  0x8d, 0x27, 0x90, 0x67, 0x5a, 0x6f, 0x7d, 0x88, 0x7f, 0x34, 0x6c, 0x7e,
  0x77, 0x6f, 0x7a, 0x88, 0x86, 0x69, 0x77, 0x93, 0x68, 0x6d, 0x7e, 0x7a,
  0x82, 0x40, 0x70, 0x90, 0x9d, 0x6c, 0x6a, 0x7e, 0x4f, 0x54, 0x79, 0xa4,
  0x6f, 0x86, 0x65, 0x98, 0x9b, 0x4a, 0x90, 0xa2, 0xb2, 0xc0, 0x91, 0xa2,
  0xaf, 0x6f, 0x81, 0x98, 0x8f, 0x90, 0x66, 0xb3, 0xb7, 0x64, 0x74, 0x8b,
  0x73, 0x89, 0x71, 0x93, 0x99, 0x6a, 0x7d, 0x8c, 0x84, 0xc7, 0x90, 0x90,
  0x86, 0x5e, 0x8c, 0x66, 0xa6, 0xcc, 0x62, 0xbf, 0x8f, 0x5e, 0x83, 0x68,
  0x7e, 0x96, 0x66, 0x93, 0x8c, 0x60, 0x80, 0x84, 0x86, 0xb4, 0x69, 0xbc,
  0xb5, 0x7b, 0x7c, 0x82, 0x87, 0x8b, 0x2d, 0xac, 0xb3, 0x6c, 0x88, 0x75,
  0x7d, 0x8c, 0x57, 0x93, 0xaa, 0x62, 0x94, 0x76, 0x6a, 0x70, 0x76, 0xa3,
  0x6a, 0x59, 0x92, 0x6b, 0x5f, 0x86, 0x71, 0x9c, 0x61, 0x4c, 0x79, 0x81,
  0x2f, 0xab, 0x58, 0x78, 0x82, 0x32, 0x84, 0x79, 0x5c, 0xa6, 0x82, 0x9d,
  0x70, 0x46, 0x87, 0x6f, 0x70, 0x8c, 0x70, 0xb0, 0x7e, 0x3d, 0x74, 0x70,
  0x71, 0x62, 0x8d, 0xae, 0x92, 0x31, 0x85, 0x71, 0x6c, 0x7f, 0x82, 0x84,
  0x7d, 0x23, 0x8b, 0x95, 0x7d, 0x7e, 0x8c, 0x6d, 0x7e, 0x57, 0x93, 0x92,
  0x84, 0x71, 0x69, 0x8a, 0x83, 0x3d, 0x7c, 0x83, 0x89, 0x6c, 0x6d, 0xa4,
  0x95, 0x55, 0x8a, 0xbb, 0x68, 0x95, 0x61, 0x8f, 0x95, 0x52, 0x7f, 0xa2,
  0xaf, 0xa2, 0x62, 0x8d, 0x9d, 0x66, 0x67, 0x90, 0x79, 0x9c, 0x43, 0xb2,
  0x92, 0x61, 0x88, 0x9f, 0x70, 0x98, 0x80, 0x94, 0x9a, 0x68, 0x86, 0x9a,
  0x8a, 0x9d, 0x8a, 0x9c, 0x71, 0x7c, 0x8c, 0x77, 0x95, 0xb6, 0x64, 0xc4,
  0x7f, 0x71, 0x77, 0x7c, 0x88, 0xaf, 0x55, 0xae, 0x92, 0x7a, 0x60, 0x97,
  0x8c, 0x92, 0x51, 0xa6, 0xb7, 0x82, 0x7b, 0x7f, 0x6c, 0x9b, 0x48, 0xca,
  0xbd, 0x78, 0x97, 0x92, 0x76, 0xaf, 0x66, 0xaa, 0xc9, 0x5e, 0x7b, 0x5b,
  0x87, 0x87, 0x5b, 0xaf, 0x80, 0x46, 0x7d, 0x6a, 0x67, 0x8d, 0x7e, 0x8c,
  0x7c, 0x55, 0x91, 0x86, 0x3e, 0x88, 0x77, 0x9c, 0x71, 0x37, 0x86, 0x79,
  0x6f, 0x99, 0x7c, 0xb4, 0x89, 0x43, 0x6b, 0x74, 0x7d, 0x8a, 0x73, 0x9d,
  0x80, 0x31, 0x76, 0x5e, 0x6d, 0x72, 0x80, 0xb1, 0x85, 0x21, 0x9a, 0x89,
  0x64, 0x7c, 0x64, 0x96, 0x81, 0x1e, 0x80, 0x7c, 0x5b, 0x83, 0x7d, 0x6f,
  0x7c, 0x3f, 0x8f, 0x82, 0x76, 0x89, 0x7f, 0x7c, 0x6f, 0x38, 0x7c, 0x8d,
  0x92, 0x5c, 0x56, 0x61, 0x7a, 0x4b, 0x96, 0xa8, 0x7a, 0xb0, 0x7a, 0xac,
  0xb0, 0x63, 0x86, 0xaa, 0xa8, 0xb4, 0x61, 0x94, 0x8e, 0x84, 0x69, 0x89,
  0x78, 0x95, 0x6b, 0xb0, 0xa7, 0x7d, 0x5c, 0x8f, 0x7d, 0x93, 0x56, 0x90,
  0x9c, 0x6b, 0x7e, 0x74, 0x68, 0xa0, 0x90, 0xa6, 0x85, 0x59, 0x80, 0x86,
  0x86, 0x93, 0x88, 0xab, 0x84, 0x6d, 0x86, 0x6b, 0x89, 0xba, 0x5f, 0xb1,
  0x8f, 0x59, 0x75, 0x73, 0x75, 0x77, 0x63, 0x9e, 0xa7, 0x75, 0x99, 0x71,
  0x6c, 0xc5, 0x49, 0xc0, 0xcb, 0x71, 0x71, 0x6f, 0x8a, 0x8a, 0x58, 0xbb,
  0xae, 0x4d, 0x7a, 0x64, 0x81, 0x7d, 0x81, 0xa9, 0x6c, 0x59, 0x85, 0x5e,
  0x5f, 0x7d, 0x76, 0x9a, 0x68, 0x52, 0x6f, 0x58, 0x4a, 0x81, 0x6b, 0x6f,
  0x68, 0x2d, 0x6b, 0x76, 0x71, 0x86, 0x7f, 0x9e, 0x63, 0x3c, 0x5c, 0x58,
  0x66, 0x8b, 0x74, 0xa5, 0x61, 0x2d, 0x7d, 0x60, 0x70, 0x89, 0x92, 0xa7,
  0x92, 0x31, 0x78, 0x87, 0x63, 0x70, 0x88, 0x8c, 0x6d, 0x37, 0x79, 0x83,
  0x6e, 0x73, 0x88, 0x7e, 0x6f, 0x56, 0x7d, 0x98, 0x69, 0x80, 0x91, 0x87,
  0x84, 0x4c, 0x7f, 0x76, 0x98, 0x7c, 0x6f, 0x61, 0x82, 0x67, 0x79, 0xc2,
  0x7c, 0x94, 0x5e, 0x9e, 0x99, 0x40, 0x7e, 0x9b, 0xb2, 0x9b, 0x43, 0x72,
  0x92, 0x7b, 0x5f, 0x9a, 0x85, 0xb4, 0x65, 0xc3, 0x96, 0x75, 0x70, 0x90,
  0x5e, 0x77, 0x75, 0x77, 0x92, 0x69, 0x98, 0x82, 0x77, 0x98, 0x7d, 0x92,
  0x7d, 0x4a, 0x82, 0x6e, 0x98, 0x9a, 0x8e, 0xb8, 0x88, 0x68, 0x8b, 0x83,
  0x8a, 0x9b, 0x63, 0xa6, 0x83, 0x62, 0x75, 0x79, 0x94, 0xaa, 0x61, 0xbd,
  0xbe, 0x6b, 0x70, 0x67, 0x6d, 0xb5, 0x41, 0xbc, 0xca, 0x68, 0x91, 0x88,
  0x89, 0x74, 0x5d, 0xa8, 0xb2, 0x74, 0x6f, 0x68, 0x73, 0x88, 0x6a, 0xa9,
  0x72, 0x62, 0x83, 0x47, 0x49, 0xa4, 0x69, 0x84, 0x7c, 0x41, 0x6c, 0x77,
  0x40, 0x78, 0x5c, 0x81, 0x8d, 0x2f, 0x59, 0x5b, 0x5f, 0x9d, 0x75, 0x94,
  0x78, 0x35, 0x79, 0x88, 0x7a, 0x98, 0x75, 0xa9, 0x8f, 0x32, 0x7d, 0x79,
  0x6f, 0x98, 0x87, 0xa6, 0x6e, 0x40, 0x8e, 0x6b, 0x62, 0x93, 0x98, 0x82,
  0x72, 0x38, 0x77, 0x7c, 0x84, 0x7c, 0x6e, 0x7b, 0x77, 0x55, 0x7e, 0x95,
  0x67, 0x7a, 0x7b, 0x93, 0x7a, 0x48, 0x7f, 0x7e, 0xa5, 0x79, 0x85, 0x51,
  0x90, 0x61, 0x91, 0x90, 0x68, 0x98, 0x5c, 0x8c, 0xa4, 0x6d, 0x7f, 0x8b,
  0xb3, 0xa9, 0x5d, 0x8e, 0x8f, 0x8b, 0x58, 0xa8, 0x81, 0x9e, 0x69, 0xae,
  0x9e, 0x66, 0x65, 0x99, 0x7a, 0x76, 0x54, 0x92, 0x7d, 0x7e, 0x84, 0x89,
  0x65, 0x92, 0x80, 0x99, 0x82, 0x60, 0x79, 0x82, 0xa0, 0xbc, 0x80, 0xca,
  0x7e, 0x64, 0x60, 0x74, 0x92, 0xa1, 0x6a, 0x94, 0x79, 0x6a, 0x5e, 0x7d,
  0x73, 0x87, 0x41, 0xc0, 0xae, 0x72, 0x6d, 0x85, 0x79, 0xa9, 0x55, 0xbe,
  0xb6, 0x5d, 0x87, 0x69, 0x93, 0xa7, 0x5b, 0xb4, 0x8c, 0x73, 0x73, 0x60,
  0x82, 0x96, 0x55, 0x9c, 0x91, 0x54, 0x8f, 0x5f, 0x5e, 0x9c, 0x79, 0x92,
  0x72, 0x4f, 0x8f, 0x77, 0x45, 0xa3, 0x48, 0x63, 0x7a, 0x4c, 0x6f, 0x64,
  0x7d, 0x88, 0x6b, 0x9f, 0x80, 0x27, 0x85, 0x71, 0x6c, 0x78, 0x6d, 0xae,
  0x82, 0x45, 0x87, 0x66, 0x5f, 0x91, 0x85, 0x9a, 0x76, 0x41, 0x7f, 0x67,
  0x60, 0x9d, 0x91, 0x75, 0x69, 0x1e, 0x8c, 0x68, 0x6e, 0x8d, 0x82, 0x84,
  0x73, 0x44, 0x7d, 0x7a, 0x6b, 0x82, 0x64, 0x8a, 0x64, 0x38, 0x78, 0x9d,
  0x8e, 0x72, 0x68, 0x77, 0x6a, 0x46, 0x74, 0x8d, 0x68, 0x90, 0x73, 0x81,
  0x9c, 0x44, 0x5e, 0x86, 0x93, 0xc3, 0x6b, 0x8a, 0x96, 0x69, 0x71, 0x88,
  0x78, 0x89, 0x6b, 0xc6, 0xb5, 0x6c, 0x52, 0x9b, 0x59, 0x92, 0x7a, 0x95,
  0x8d, 0x70, 0x75, 0x79, 0x5f, 0x9f, 0x6b, 0x92, 0x6e, 0x56, 0x8b, 0x89,
  0x8a, 0xa1, 0x6f, 0xa8, 0x79, 0x59, 0x67, 0x7b, 0x8d, 0xc3, 0x6d, 0xb0,
  0x8e, 0x84, 0x50, 0x7c, 0x85, 0x84, 0x43, 0xaa, 0xb5, 0x6d, 0x72, 0x84,
  0x65, 0xa3, 0x51, 0xbe, 0xd0, 0x8d, 0x72, 0x7c, 0x70, 0xa5, 0x5d, 0xa4,
  0x86, 0x74, 0x6a, 0x5b, 0x7f, 0x77, 0x69, 0x93, 0x7a, 0x75, 0x83, 0x6b,
  0x5d, 0x6d, 0x56, 0x98, 0x83, 0x5b, 0x65, 0x6c, 0x6d, 0x76, 0x58, 0x7e,
  0x78, 0x64, 0x4e, 0x87, 0x72, 0x8c, 0x73, 0x9b, 0x86, 0x3d, 0x69, 0x59,
  0x77, 0x99, 0x7b, 0x8f, 0x8a, 0x3c, 0x74, 0x73, 0x77, 0x79, 0x6d, 0x94,
  0x81, 0x4d, 0x82, 0x77, 0x50, 0x6b, 0x87, 0x7a, 0x6f, 0x2c, 0x7c, 0x75,
  0x68, 0x7d, 0x73, 0x8e, 0x79, 0x2f, 0x83, 0x86, 0x8d, 0x81, 0x74, 0x7a,
  0x78, 0x3a, 0x81, 0x78, 0x97, 0x91, 0x7e, 0x8d, 0x96, 0x37, 0xa5, 0x8e,
  0x5a, 0xb3, 0x6e, 0x8a, 0x8e, 0x6e, 0x77, 0x54, 0xa0, 0xb3, 0x71, 0x90,
  0x97, 0x5c, 0x6a, 0x88, 0x76, 0xa4, 0x55, 0x9f, 0x9f, 0x64, 0x55, 0xa3,
  0x69, 0xa1, 0x7d, 0x82, 0x97, 0x55, 0x84, 0x8b, 0x58, 0x96, 0x8c, 0x88,
  0x6e, 0x73, 0x96, 0x85, 0x9a, 0xae, 0xa0, 0xc9, 0x98, 0x5d, 0x73, 0x66,
  0x8f, 0xa2, 0x6a, 0xc2, 0x7b, 0x67, 0x5b, 0x71, 0x8b, 0xa2, 0x41, 0xbd,
  0xb3, 0x5e, 0x78, 0x6a, 0x60, 0xa9, 0x50, 0xbe, 0xc6, 0x7e, 0x90, 0x64,
  0x7b, 0xaa, 0x66, 0xb3, 0x99, 0x57, 0x7f, 0x54, 0x7a, 0x72, 0x6a, 0x85,
  0x84, 0x45, 0x82, 0x83, 0x5b, 0x8c, 0x6c, 0x84, 0x81, 0x6f, 0x70, 0x63,
  0x71, 0x81, 0x55, 0x8c, 0x86, 0x45, 0x74, 0x5c, 0x5a, 0x96, 0x64, 0x8b,
  0x81, 0x45, 0x78, 0x64, 0x60, 0x91, 0x71, 0xa0, 0x98, 0x52, 0x76, 0x5f,
  0x5d, 0x8c, 0x79, 0xa5, 0x76, 0x4e, 0x99, 0x48, 0x5e, 0x7e, 0x8a, 0x7a,
  0x80, 0x3d, 0x59, 0x4a, 0x68, 0x67, 0x65, 0x70, 0x6d, 0x42, 0x8d, 0x67,
  0x46, 0x7b, 0x78, 0x7c, 0x96, 0x1e, 0x7e, 0x7a, 0x8b, 0x91, 0x7f, 0x7e,
  0x71, 0x52, 0x9a, 0x5f, 0x66, 0xb0, 0x5b, 0x83, 0xa1, 0x4e, 0x6e, 0x5e,
  0xa9, 0xb0, 0x6d, 0x8d, 0x9e, 0x7a, 0x4d, 0xa7, 0x7c, 0x7f, 0x78, 0xb8,
  0xb1, 0x69, 0x57, 0x79, 0x65, 0x92, 0x7f, 0x99, 0x9d, 0x58, 0x83, 0x75,
  0x5c, 0x9e, 0x73, 0x82, 0x84, 0x5f, 0x92, 0x74, 0x8e, 0xa9, 0x6f, 0xbf,
  0x71, 0x5d, 0x6d, 0x74, 0xa9, 0xb3, 0x6a, 0xbc, 0x82, 0x53, 0x78, 0x84,
  0x6b, 0x93, 0x4b, 0xca, 0xb2, 0x80, 0x83, 0x77, 0x7f, 0xa5, 0x6d, 0xb3,
  0xc6, 0x68, 0x7d, 0x8d, 0x7e, 0xb1, 0x6b, 0xaa, 0x9c, 0x75, 0x93, 0x6e,
  0x8a, 0x6f, 0x6c, 0x8e, 0x93, 0x61, 0x85, 0x6f, 0x61, 0x96, 0x78, 0x79,
  0x9e, 0x63, 0x68, 0x88, 0x52, 0x77, 0x60, 0x9b, 0x78, 0x5e, 0x7c, 0x93,
  0x62, 0x7f, 0x71, 0x85, 0x8d, 0x52, 0x67, 0x77, 0x68, 0x89, 0x68, 0xaf,
  0x76, 0x4d, 0x75, 0x52, 0x77, 0x7a, 0x68, 0x8e, 0x7d, 0x4b, 0x90, 0x4b,
  0x71, 0x76, 0x6d, 0x72, 0x75, 0x26, 0x71, 0x5c, 0x60, 0x73, 0x65, 0x5e,
  0x6d, 0x3d, 0x7c, 0x5a, 0x8a, 0x7d, 0x63, 0x81, 0x87, 0x5d, 0x8c, 0x7b,
  0x9a, 0x71, 0x8a, 0x7c, 0x74, 0x64, 0x7e, 0x9c, 0x53, 0x96, 0x60, 0x85,
  0x86, 0x76, 0x58, 0x7d, 0xa5, 0x8e, 0x7c, 0xa5, 0xb0, 0x5d, 0x6a, 0x79,
  0x78, 0x9a, 0x6d, 0x97, 0xcb, 0x6e, 0x60, 0x92, 0x47, 0x81, 0x69, 0x9e,
  0x90, 0x6d, 0x90, 0x9e, 0x55, 0x89, 0x6c, 0x63, 0x66, 0x69, 0x9d, 0x92,
  0x83, 0x90, 0x7f, 0xa7, 0x90, 0x6b, 0x52, 0x8b, 0x9f, 0xa4, 0x7d, 0x9e,
  0xa1, 0x65, 0x60, 0x71, 0x90, 0x8c, 0x55, 0xb8, 0xc0, 0x80, 0x80, 0x8a,
  0x79, 0xa6, 0x62, 0xa7, 0xb9, 0x83, 0x9a, 0x8d, 0x88, 0xa3, 0x77, 0xc0,
  0xae, 0x74, 0x79, 0x8a, 0x80, 0x7a, 0x5c, 0x6c, 0x8a, 0x69, 0x83, 0x8f,
  0x67, 0x81, 0x71, 0x8c, 0x6a, 0x71, 0x6b, 0x69, 0x62, 0x95, 0x56, 0x83,
  0x81, 0x34, 0x57, 0x8e, 0x7e, 0x82, 0x62, 0x75, 0x7d, 0x45, 0x67, 0x5e,
  0x6a, 0x7d, 0x6a, 0xa7, 0xa0, 0x51, 0x6b, 0x6e, 0x86, 0x9f, 0x78, 0x78,
  0x79, 0x59, 0x78, 0x4a, 0x89, 0x81, 0x67, 0x6e, 0x67, 0x45, 0x7b, 0x64,
  0x7b, 0x63, 0x5e, 0x63, 0x68, 0x59, 0x6d, 0x55, 0x83, 0x76, 0x79, 0x6f,
  0x78, 0x49, 0x7c, 0x50, 0x92, 0x95, 0x69, 0xa4, 0x88, 0x6d, 0x84, 0x99,
  0x5e, 0x90, 0x62, 0x87, 0x9c, 0x5c, 0x6f, 0x4a, 0x95, 0xa7, 0x54, 0x94,
  0xa9, 0x7b, 0x4e, 0x6b, 0x8b, 0x88, 0x44, 0xab, 0xc0, 0x6e, 0x4f, 0x61,
  0x63, 0x73, 0x6d, 0x95, 0x8b, 0x7d, 0x88, 0x79, 0x55, 0x82, 0x7b, 0x68,
  0x82, 0x76, 0x98, 0x72, 0xae, 0xb4, 0x6c, 0xa3, 0x91, 0x6c, 0x52, 0x97,
  0xa9, 0x7c, 0x66, 0x9c, 0xa4, 0x72, 0x72, 0x87, 0x8b, 0xa2, 0x7c, 0xac,
  0xc4, 0x84, 0x86, 0x80, 0x7d, 0x8d, 0x8c, 0xa7, 0xc2, 0x7d, 0x90, 0x77,
  0x81, 0xa4, 0x75, 0xb7, 0xb0, 0x7d, 0x89, 0x78, 0x71, 0x7e, 0x6d, 0x60,
  0xa1, 0x73, 0x83, 0x88, 0x6c, 0x7e, 0x8b, 0x74, 0x89, 0x65, 0x69, 0x6d,
  0x76, 0x89, 0x5b, 0x94, 0x6e, 0x6b, 0x67, 0x63, 0x94, 0x90, 0x58, 0x9c,
  0xa0, 0x4d, 0x69, 0x51, 0x5d, 0x88, 0x71, 0xa8, 0x86, 0x33, 0x5c, 0x57,
  0x82, 0x7f, 0x4a, 0x84, 0x7f, 0x63, 0x7a, 0x4a, 0x77, 0x95, 0x68, 0x68,
  0x71, 0x46, 0x7f, 0x6c, 0x7c, 0x7d, 0x3a, 0x67, 0x71, 0x27, 0x79, 0x55,
  0x75, 0x6d, 0x57, 0x81, 0x6b, 0x4f, 0x65, 0x53, 0x81, 0x57, 0x94, 0x8c,
  0x86, 0x68, 0x3f, 0x83, 0x95, 0x75, 0x5c, 0x65, 0x87, 0x57, 0x64, 0x8d,
  0x8d, 0x61, 0x5d, 0x88, 0x99, 0x6c, 0x4f, 0x62, 0x95, 0xa1, 0x67, 0x8f,
  0xa4, 0x58, 0x20, 0x6a, 0x74, 0x77, 0x51, 0x6b, 0x7d, 0x81, 0x5f, 0x71,
  0x6a, 0x96, 0x76, 0x88, 0x85, 0x62, 0x8a, 0x7d, 0x89, 0xac, 0x5b, 0xa1,
  0x88, 0x4b, 0x69, 0x7e, 0xd6, 0xa2, 0x98, 0xa5, 0x8d, 0x61, 0x5d, 0x73,
  0x81, 0x88, 0x60, 0xc2, 0xb6, 0x7f, 0x7f, 0x69, 0x62, 0x93, 0x5c, 0xa3,
  0xa5, 0x7d, 0xa8, 0x78, 0x8d, 0xb2, 0x63, 0xb0, 0xc7, 0x7e, 0x9a, 0x72,
  0x84, 0x8e, 0x68, 0x79, 0x98, 0x66, 0x83, 0x5d, 0x73, 0x9c, 0x85, 0x81,
  0x6e, 0x65, 0x6c, 0x5f, 0x87, 0x80, 0x6a, 0x8c, 0x7e, 0x67, 0x60, 0x83,
  0x84, 0x87, 0x51, 0xa9, 0x7e, 0x39, 0x63, 0x68, 0x76, 0x7d, 0x5a, 0xc5,
  0xaa, 0x50, 0x64, 0x7c, 0x67, 0x7d, 0x61, 0x8e, 0x7a, 0x24, 0x73, 0x57,
  0x7b, 0x74, 0x7f, 0x98, 0x76, 0x3e, 0x56, 0x83, 0x79, 0x84, 0x70, 0x73,
  0x70, 0x42, 0x61, 0x6e, 0x77, 0x7b, 0x82, 0x87, 0x78, 0x42, 0x6b, 0x72,
  0xa4, 0x5c, 0x7d, 0x7a, 0x86, 0x4b, 0x55, 0x6d, 0x83, 0x55, 0x71, 0x73,
  0x9e, 0x78, 0x2c, 0x8e, 0x7b, 0x74, 0x65, 0xaa, 0x86, 0x72, 0x53, 0x67,
  0xa3, 0x78, 0x8f, 0x8a, 0x97, 0x5f, 0x49, 0x86, 0x75, 0x51, 0x83, 0x80,
  0x6a, 0x80, 0x8e, 0x7f, 0x74, 0x9e, 0x8b, 0x74, 0x91, 0x65, 0x69, 0x7c,
  0x86, 0x94, 0x99, 0x98, 0x83, 0x79, 0x4d, 0x69, 0xa2, 0x88, 0x80, 0xb1,
  0x7f, 0x77, 0x53, 0x7a, 0x77, 0x71, 0x63, 0xb3, 0x8b, 0x6b, 0x90, 0x65,
  0x67, 0x9b, 0x94, 0xa0, 0xba, 0x6e, 0x8a, 0x63, 0x9a, 0x9a, 0x5e, 0xbc,
  0x9f, 0x81, 0x92, 0x93, 0x7f, 0x80, 0x64, 0x70, 0x87, 0x88, 0x71, 0x65,
  0x65, 0x9e, 0x69, 0x7d, 0x6e, 0x7a, 0x6d, 0x97, 0x88, 0x85, 0x6b, 0x99,
  0x88, 0x8f, 0x78, 0x59, 0x82, 0x5e, 0x94, 0x9c, 0x9f, 0x81, 0x49, 0x6d,
  0x64, 0x86, 0x51, 0xc8, 0x9a, 0x5e, 0x75, 0x79, 0x72, 0x94, 0x76, 0x86,
  0x71, 0x74, 0x8b, 0x7d, 0x77, 0x73, 0x88, 0x75, 0x60, 0x56, 0x7e, 0x80,
  0x6a, 0x5b, 0x58, 0x60, 0x67, 0x6c, 0x70, 0x4b, 0x45, 0x57, 0x89, 0x82,
  0x80, 0x5e, 0x70, 0x79, 0x6d, 0x90, 0x91, 0x7c, 0x58, 0x76, 0x8c, 0x85,
  0x4e, 0x82, 0x76, 0x69, 0x7d, 0x83, 0x8d, 0x88, 0x57, 0x85, 0x73, 0x5a,
  0x6e, 0x46, 0x9c, 0x9b, 0x63, 0x5c, 0x75, 0x93, 0x4e, 0x8b, 0x96, 0x92,
  0x90, 0x6b, 0x7c, 0x70, 0x6e, 0x7b, 0x92, 0x7d, 0x79, 0x4b, 0x76, 0x5c,
  0x70, 0x65, 0x53, 0x76, 0x64, 0x55, 0x9a, 0x77, 0x47, 0x5d, 0x6e, 0x8b,
  0x7b, 0x89, 0x5f, 0x66, 0x4e, 0x91, 0x87, 0x86, 0x73, 0x58, 0x6c, 0x69,
  0x74, 0x81, 0x80, 0x90, 0x78, 0x66, 0x77, 0x56, 0x7c, 0x95, 0x6d, 0x83,
  0x78, 0x66, 0x78, 0x8f, 0x45, 0x5c, 0x79, 0x7d, 0x7a, 0x78, 0x63, 0x6a,
  0x9d, 0x75, 0x7c, 0x94, 0x6e, 0x7a, 0x79, 0x80, 0x89, 0x74, 0x5d, 0x95,
  0x88, 0x5e, 0x66, 0x76, 0x6f, 0x4b, 0x75, 0x83, 0x93, 0x82, 0xa7, 0x69,
  0x79, 0x8c, 0x74, 0x9d, 0x7a, 0x79, 0x76, 0x66, 0x74, 0x66, 0x71, 0x85,
  0x9a, 0x9e, 0xac, 0x79, 0x4a, 0x93, 0x89, 0x8c, 0x5e, 0x65, 0x81, 0x8c,
  0x9a, 0x8f, 0x6a, 0x89, 0x6e, 0x56, 0x77, 0x81, 0x7f, 0x50, 0x7b, 0x77,
  0x59, 0x96, 0x82, 0x7b, 0x69, 0x76, 0x59, 0x75, 0x68, 0x5a, 0x8a, 0x8d,
  0x92, 0x7d, 0x9d, 0x9c, 0x70, 0x9b, 0x64, 0x9c, 0x68, 0x86, 0x7c, 0x9d,
  0x6b, 0x61, 0x84, 0x3d, 0x64, 0x72, 0xa1, 0xac, 0x9d, 0x5e, 0x69, 0x86,
  0x7a, 0x8c, 0x93, 0xb6, 0x89, 0x8d, 0x83, 0x7a, 0x69, 0x7b, 0xa9, 0x8e,
  0x75, 0x60, 0x7e, 0x62, 0x63, 0x65, 0x81, 0xa8, 0x82, 0x82, 0x69, 0x75,
  0x7e, 0x56, 0x8e, 0x9a, 0x9f, 0x94, 0x79, 0x71, 0x67, 0x74, 0x97, 0x9d,
  0x52, 0x74, 0x7a, 0x6d, 0x6f, 0x69, 0x86, 0x85, 0x8e, 0x74, 0x71, 0x79,
  0x54, 0x74, 0x93, 0x92, 0x78, 0x93, 0x76, 0x5c, 0x65, 0x5b, 0x90, 0x89,
  0x8f, 0x81, 0x5e, 0x5c, 0x7b, 0x98, 0x88, 0x86, 0x5a, 0x64, 0x67, 0x75,
  0x61, 0x84, 0x92, 0x7a, 0x4f, 0x83, 0x6f, 0x57, 0x69, 0x88, 0x94, 0x8b,
  0x68, 0x7b, 0x80, 0x88, 0x77, 0x81, 0x84, 0x94, 0x79, 0x7a, 0x94, 0x96,
  0x80, 0x65, 0x9e, 0x72, 0x78, 0x87, 0x75, 0x6e, 0x6a, 0x8f, 0x68, 0x8e,
  0x72, 0x57, 0x6c, 0x8e, 0x91, 0x8a, 0x68, 0x7b, 0x77, 0x91, 0x75, 0x7c,
  0x9b, 0x96, 0x6a, 0x89, 0x83, 0x72, 0x7a, 0x91, 0x69, 0x68, 0x6b, 0x7b,
  0x86, 0x53, 0x74, 0xa2, 0x85, 0x7b, 0x78, 0x92, 0x8a, 0x8d, 0x7a, 0x66,
  0x56, 0x57, 0x9a, 0xa1, 0x97, 0x78, 0x69, 0x58, 0x86, 0x59, 0x73, 0x84,
  0xa7, 0xa1, 0x74, 0x65, 0x6c, 0x66, 0x7c, 0x84, 0xaf, 0x8c, 0x7e, 0x76,
  0x5e, 0x74, 0x51, 0x8e, 0x9d, 0x7c, 0x6e, 0x71, 0x72, 0x72, 0x83, 0x8a,
  0x85, 0x96, 0x95, 0x7c, 0x8c, 0x7d, 0x76, 0x72, 0x5d, 0x79, 0x83, 0x7f,
  0x55, 0x65, 0x80, 0x8c, 0x72, 0x7b, 0x71, 0x7e, 0x7d, 0x92, 0x89, 0x8a,
  0x73, 0x63, 0x92, 0x64, 0x8f, 0x71, 0x77, 0x95, 0x74, 0x62, 0x62, 0x6e,
  0x7f, 0x88, 0x78, 0x87, 0x6e, 0x6c, 0x72, 0x74, 0x88, 0x4f, 0x85, 0x81,
  0x3e, 0x94, 0x78, 0x8b, 0x90, 0x93, 0x81, 0xa9, 0x5c, 0x90, 0x8a, 0x5b,
  0x65, 0x94, 0x96, 0x8c, 0x6d, 0xa2, 0x62, 0x8e, 0x77, 0x66, 0x63, 0x93,
  0x8e, 0x8b, 0x65, 0x64, 0x83, 0x82, 0xa1, 0x9c, 0x76, 0x6f, 0x87, 0x74,
  0x55, 0x7d, 0x88, 0x94, 0x53, 0x9e, 0x84, 0x7d, 0x75, 0x72, 0xab, 0x79,
  0x8a, 0x6c, 0x7a, 0x84, 0x6b, 0x60, 0x83, 0x6a, 0x6e, 0x77, 0x6b, 0x95,
  0x83, 0x82, 0x86, 0x66, 0xa4, 0x76, 0x64, 0xa2, 0x50, 0x60, 0x70, 0x8c,
  0x71, 0x8e, 0x51, 0x7b, 0xa3, 0x76, 0x7a, 0x57, 0xaa, 0x74, 0x83, 0x64,
  0x95, 0x75, 0x86, 0x73, 0xc1, 0x48, 0x7b, 0x6c, 0x84, 0x7a, 0x91, 0x6a,
  0xde, 0x86, 0x86, 0x6f, 0x81, 0x70, 0x79, 0x70, 0xbc, 0x64, 0xa0, 0x41,
  0x90, 0x5e, 0x6e, 0x67, 0xa6, 0x5c, 0x8b, 0x7e, 0x92, 0x7f, 0x84, 0x6a,
  0x75, 0x6c, 0x64, 0x63, 0x93, 0x81, 0x76, 0x82, 0x8a, 0x5f, 0x75, 0x74,
  0x77, 0x72, 0x87, 0x88, 0x83, 0x71, 0x7b, 0x5b, 0x68, 0x73, 0x74, 0x84,
  0x64, 0x51, 0x48, 0x62, 0x6b, 0x9c, 0x6e, 0xac, 0x61, 0x88, 0x4d, 0x8b,
  0x9e, 0x70, 0x84, 0x99, 0x47, 0x61, 0x7a, 0x6c, 0x77, 0x96, 0x80, 0x65,
  0x79, 0x85, 0x88, 0x91, 0x84, 0x65, 0x6c, 0x92, 0x60, 0x84, 0xa2, 0x7b,
  0x6e, 0x85, 0x95, 0x95, 0x99, 0x82, 0x9d, 0x7c, 0x59, 0x5e, 0x9b, 0x9f,
  0x63, 0x70, 0xa3, 0x75, 0x5b, 0x92, 0x86, 0x7d, 0x69, 0x5a, 0x6d, 0x7c,
  0x6b, 0x77, 0x70, 0x6e, 0x83, 0x48, 0xa2, 0x7c, 0x5a, 0x9d, 0x83, 0x53,
  0x53, 0x6b, 0x93, 0xb5, 0x85, 0x7d, 0x8f, 0x56, 0x98, 0x58, 0x74, 0x7e,
  0x76, 0x69, 0x6e, 0x9c, 0x88, 0x8b, 0x5d, 0x6e, 0x86, 0x70, 0x90, 0x7a,
  0xc6, 0x75, 0x83, 0x53, 0x88, 0x77, 0x6a, 0x80, 0xbf, 0x73, 0x8e, 0x60,
  0x5d, 0x81, 0x9e, 0x6a, 0xea, 0x4a, 0x8f, 0x7d, 0x4a, 0x8e, 0x97, 0x72,
  0xbd, 0x85, 0x6e, 0x59, 0x88, 0x7d, 0x56, 0x70, 0x87, 0x8e, 0x74, 0x7e,
  0x97, 0x62, 0x7a, 0x7e, 0x7b, 0x7e, 0x76, 0x51, 0x93, 0x75, 0x61, 0x6f,
  0x87, 0x68, 0x6c, 0x79, 0x92, 0x79, 0x7c, 0x6c, 0x86, 0x9f, 0x91, 0x5d,
  0x75, 0x51, 0x74, 0x7d, 0x5d, 0x77, 0x4f, 0x57, 0x8d, 0x70, 0x51, 0x8d,
  0x53, 0x68, 0x42, 0x67, 0x83, 0x87, 0x88, 0x9f, 0x53, 0x52, 0x58, 0x59,
  0x8d, 0x81, 0x65, 0x73, 0x67, 0x93, 0x6e, 0x5c, 0x89, 0x84, 0x8f, 0x7a,
  0x76, 0x75, 0x71, 0x73, 0x7f, 0x73, 0x86, 0x97, 0x85, 0x64, 0x95, 0x66,
  0x5b, 0x61, 0x94, 0x86, 0x73, 0x69, 0x7d, 0x67, 0x71, 0x62, 0x54, 0x7a,
  0x97, 0x7a, 0x7e, 0x78, 0x4f, 0x9a, 0x92, 0x7f, 0x61, 0x6b, 0x8b, 0x85,
  0x5b, 0x62, 0x7e, 0x68, 0x92, 0x61, 0x70, 0x9d, 0x99, 0x84, 0x6b, 0x6b,
  0x7b, 0x6a, 0x87, 0x59, 0x96, 0x7b, 0x74, 0x8c, 0x80, 0x6c, 0x75, 0x44,
  0xa1, 0x65, 0x7e, 0x7f, 0xc6, 0x67, 0x75, 0x5f, 0x87, 0x98, 0x87, 0xa8,
  0xe6, 0x5c, 0xbb, 0x43, 0x6c, 0x58, 0x7b, 0x91, 0xeb, 0x60, 0xad, 0x3e,
  0x68, 0x8e, 0x64, 0x74, 0xb8, 0x6e, 0x6f, 0x35, 0x8e, 0x88, 0x63, 0x8d,
  0x93, 0x77, 0x88, 0x6e, 0x85, 0x51, 0x60, 0x65, 0x6c, 0x5b, 0x6e, 0x5b,
  0x72, 0x70, 0x46, 0x90, 0x7c, 0x5d, 0x69, 0x7a, 0x81, 0x84, 0x86, 0x7b,
  0x8f, 0x66, 0x7d, 0x5b, 0x76, 0x61, 0x7d, 0x8f, 0x61, 0x87, 0x63, 0x77,
  0x94, 0x72, 0x75, 0x7c, 0x4d, 0x6b, 0x6a, 0x67, 0xae, 0x74, 0x65, 0x86,
  0x64, 0x8f, 0x64, 0x5b, 0x8f, 0x84, 0x56, 0x62, 0x5e, 0x96, 0x80, 0x70,
  0x9b, 0x60, 0x5a, 0x7e, 0x55, 0x51, 0x8d, 0x8f, 0x7f, 0x8d, 0x6f, 0x80,
  0x82, 0x8a, 0x88, 0x62, 0x69, 0x7e, 0x60, 0x86, 0x91, 0x68, 0xa6, 0x5d,
  0x51, 0x63, 0x73, 0x91, 0x85, 0x73, 0xa0, 0x49, 0x3e, 0x7a, 0x6d, 0x81,
  0x64, 0x4e, 0x87, 0x95, 0x63, 0x75, 0x78, 0x63, 0x80, 0x48, 0x87, 0x9f,
  0x8d, 0x8a, 0x58, 0x6e, 0x96, 0x8d, 0x78, 0x6d, 0x84, 0x96, 0x69, 0xa0,
  0x85, 0x5e, 0x5c, 0x65, 0xa3, 0x78, 0x87, 0x61, 0xe7, 0x6b, 0x9c, 0x59,
  0x88, 0x86, 0x70, 0x92, 0xf3, 0x4a, 0x8e, 0x43, 0x69, 0x5e, 0x93, 0x7f,
  0xff, 0x47, 0x9c, 0x47, 0x6c, 0x78, 0x71, 0x90, 0xd9, 0x9e, 0x77, 0x51,
  0x8f, 0x5b, 0x78, 0x75, 0x80, 0x89, 0x6d, 0x75, 0x85, 0x75, 0x6e, 0x6e,
  0x82, 0x67, 0x69, 0x57, 0x83, 0x82, 0x6f, 0x68, 0x69, 0x7f, 0x82, 0x65,
  0x93, 0x77, 0x6c, 0x78, 0x7f, 0x5c, 0x86, 0x68, 0x8b, 0x5d, 0x6a, 0x69,
  0x63, 0x83, 0x4f, 0x81, 0xa3, 0x68, 0x76, 0x74, 0x66, 0x84, 0x5a, 0x4a,
  0x81, 0x86, 0x62, 0x70, 0x63, 0x92, 0x48, 0x77, 0x86, 0x75, 0x60, 0x89,
  0x6b, 0x6a, 0x56, 0x67, 0x6a, 0x72, 0x80, 0x6a, 0x68, 0x84, 0x8d, 0x72,
  0x7c, 0x90, 0x7d, 0x86, 0x89, 0x7e, 0x86, 0x73, 0x5b, 0x62, 0x5b, 0x6f,
  0xa1, 0x67, 0xa3, 0x41, 0x59, 0x82, 0x6a, 0x68, 0x6c, 0x82, 0x92, 0x68,
  0x39, 0x6f, 0x66, 0x4a, 0x52, 0x47, 0x70, 0x78, 0x4b, 0x81, 0x79, 0x50,
  0x78, 0x3a, 0x77, 0xa2, 0x8b, 0x75, 0x74, 0x61, 0x97, 0x9c, 0x94, 0x63,
  0x93, 0x70, 0x6e, 0x8f, 0x84, 0x79, 0x71, 0x6d, 0x9b, 0x7d, 0x73, 0x5d,
  0xe8, 0x34, 0x94, 0x4e, 0x83, 0x67, 0x6c, 0x8d, 0xd0, 0x49, 0xb2, 0x0a,
  0x53, 0x75, 0x8f, 0x72, 0xec, 0x4e, 0x95, 0x43, 0x76, 0x6e, 0x66, 0x84,
  0xc2, 0x59, 0x91, 0x55, 0xa0, 0x5c, 0x74, 0x76, 0x90, 0x62, 0x80, 0x60,
  0x99, 0x7c, 0x69, 0x6d, 0x69, 0x49, 0x81, 0x56, 0x87, 0x97, 0x7d, 0x76,
  0x81, 0x65, 0x78, 0x50, 0x75, 0x94, 0x73, 0x72, 0x8d, 0x61, 0x7b, 0x48,
  0x9c, 0x77, 0x59, 0x71, 0x59, 0x98, 0x53, 0x79, 0xb4, 0x57, 0x6d, 0x79,
  0x69, 0x5a, 0x58, 0x5c, 0x96, 0x9a, 0x84, 0x9d, 0x5e, 0x9d, 0x52, 0x4b,
  0x99, 0x77, 0x79, 0x6e, 0x8b, 0x6c, 0x67, 0x71, 0x91, 0x60, 0x6f, 0x66,
  0x7a, 0x85, 0x73, 0x64, 0x7b, 0x6d, 0x6e, 0x86, 0x7a, 0x59, 0x84, 0x6d,
  0x6e, 0x96, 0x6a, 0x96, 0x86, 0x66, 0x9b, 0x7e, 0x42, 0x82, 0x7a, 0x65,
  0x9e, 0x7d, 0xa3, 0x49, 0x31, 0x5a, 0x8e, 0x68, 0x70, 0x3a, 0x8c, 0x75,
  0x5e, 0x7e, 0x63, 0x66, 0x77, 0x5c, 0x6f, 0x9c, 0x8d, 0x8a, 0x7b, 0x56,
  0x8a, 0x90, 0x7d, 0x7e, 0xa8, 0x90, 0x5f, 0x78, 0xb7, 0x62, 0x89, 0x7b,
  0xa7, 0x88, 0x78, 0x6e, 0xdb, 0x28, 0x96, 0x51, 0x8f, 0x89, 0x6a, 0x90,
  0xd8, 0x43, 0x8e, 0x31, 0x51, 0x80, 0x6a, 0x70, 0xc7, 0x62, 0x8c, 0x23,
  0x7c, 0x74, 0x6b, 0x7e, 0xc3, 0x6c, 0xa3, 0x43, 0x84, 0x7b, 0x62, 0x6d,
  0x7f, 0x5a, 0x7d, 0x55, 0x8d, 0x7c, 0x8d, 0x7e, 0x64, 0x47, 0x79, 0x38,
  0x89, 0x8e, 0x84, 0x8d, 0x6a, 0x61, 0x7e, 0x64, 0x98, 0x70, 0x8f, 0x8e,
  0x72, 0x5d, 0x83, 0x63, 0x80, 0x7c, 0x7d, 0x9a, 0x74, 0x7a, 0x5e, 0x67,
  0xa9, 0x77, 0x68, 0x7c, 0x42, 0x60, 0x4f, 0x47, 0xa8, 0x74, 0x7e, 0x8d,
  0x62, 0x8a, 0x49, 0x77, 0x7f, 0x6b, 0x7e, 0x85, 0x6d, 0x61, 0x5b, 0x66,
  0x89, 0x8a, 0x81, 0x75, 0x68, 0x8b, 0x56, 0x85, 0x6f, 0x70, 0x6c, 0x8a,
  0x8d, 0x8e, 0x85, 0x70, 0x69, 0x9a, 0x77, 0x7c, 0x8a, 0x72, 0x94, 0x5a,
  0x66, 0x86, 0x52, 0x67, 0x6f, 0x66, 0xa3, 0x6b, 0x4d, 0x81, 0x84, 0x6f,
  0x71, 0x76, 0x71, 0x85, 0x47, 0x9c, 0x65, 0x67, 0x79, 0x3b, 0x6c, 0x87,
  0x82, 0x6b, 0x79, 0x68, 0xb6, 0x81, 0x4f, 0x7a, 0x88, 0x8d, 0x60, 0x78,
  0x8d, 0x4d, 0x78, 0x5c, 0x9a, 0x84, 0x87, 0x74, 0xc2, 0x41, 0x94, 0x3e,
  0x8c, 0x60, 0x5d, 0x8c, 0xd8, 0x43, 0xcb, 0x0d, 0x56, 0x81, 0x7a, 0x85,
  0xc9, 0x51, 0xb0, 0x1f, 0x86, 0x74, 0x4a, 0x85, 0xcf, 0x75, 0xa6, 0x4d,
  0x7e, 0x6e, 0x71, 0x65, 0x6e, 0x5e, 0x81, 0x4a, 0x89, 0x91, 0x7d, 0x6d,
  0x5d, 0x57, 0x84, 0x39, 0x75, 0x81, 0x85, 0x8a, 0x81, 0x52, 0x8a, 0x6f,
  0x93, 0x6c, 0x82, 0x94, 0x84, 0x79, 0x81, 0x55, 0xb4, 0x8d, 0x61, 0x8c,
  0x6c, 0x75, 0x52, 0x86, 0xb1, 0x76, 0x7b, 0x99, 0x30, 0x61, 0x56, 0x52,
  0xa6, 0x83, 0xa5, 0x83, 0x66, 0x7e, 0x3a, 0x5b, 0x7a, 0x6b, 0x7f, 0x72,
  0x8d, 0x77, 0x61, 0x7e, 0x8d, 0x8e, 0x8e, 0x95, 0x7a, 0x84, 0x70, 0x70,
  0x74, 0x81, 0x79, 0xa1, 0x81, 0x6b, 0x7c, 0x69, 0x75, 0x73, 0x76, 0x9c,
  0x84, 0x80, 0xa5, 0x64, 0x4f, 0x98, 0x71, 0x66, 0x9a, 0x67, 0x81, 0x5e,
  0x56, 0x6e, 0x89, 0x64, 0x80, 0x47, 0x7d, 0x73, 0x62, 0x9d, 0x75, 0x6c,
  0x7f, 0x46, 0x6d, 0x7a, 0x94, 0x8c, 0x67, 0x76, 0x9c, 0x88, 0x6b, 0x5c,
  0x70, 0x90, 0x55, 0x8c, 0x96, 0x63, 0x8d, 0x63, 0x88, 0x8a, 0x72, 0x85,
  0xca, 0x48, 0xa1, 0x42, 0x91, 0x77, 0x53, 0x98, 0xd1, 0x25, 0xbc, 0x35,
  0x65, 0x92, 0x80, 0x87, 0xd9, 0x79, 0xa0, 0x23, 0x80, 0x8f, 0x66, 0x78,
  0xc8, 0x83, 0x99, 0x5e, 0xa7, 0x68, 0x7c, 0x70, 0x74, 0x5c, 0x83, 0x3b,
  0x8e, 0x62, 0x74, 0x87, 0x83, 0x36, 0x64, 0x49, 0x80, 0x87, 0x81, 0x8e,
  0x85, 0x58, 0x77, 0x83, 0x8d, 0x97, 0x6c, 0x90, 0x82, 0x84, 0x7e, 0x4b,
  0x88, 0x74, 0x6f, 0x9c, 0x62, 0x42, 0x5d, 0x7d, 0xb5, 0x81, 0x8a, 0x88,
  0x43, 0x5c, 0x46, 0x50, 0xa1, 0x68, 0xa5, 0x7e, 0x68, 0x75, 0x3c, 0x85,
  0x87, 0x7b, 0x70, 0x6a, 0x8a, 0x68, 0x52, 0x65, 0x93, 0x88, 0x86, 0x8d,
  0x77, 0x79, 0x66, 0x79, 0x74, 0x82, 0x6d, 0x81, 0x84, 0xa8, 0x7d, 0x5d,
  0x75, 0x8f, 0x7b, 0xa1, 0x9c, 0x6c, 0x9a, 0x73, 0x50, 0x93, 0x75, 0x5c,
  0xa0, 0x7e, 0xa6, 0x74, 0x64, 0x7e, 0x8b, 0x5b, 0x76, 0x55, 0x80, 0x85,
  0x57, 0x92, 0x85, 0x68, 0x7a, 0x37, 0x5b, 0x7d, 0x85, 0x91, 0x7c, 0x6e,
  0x89, 0x6f, 0x66, 0x79, 0x7e, 0x81, 0x57, 0x87, 0x8e, 0x65, 0x7c, 0x8e,
  0xae, 0x8e, 0x8b, 0x81, 0xcb, 0x4a, 0x92, 0x49, 0x93, 0x9e, 0x56, 0x8f,
  0xc2, 0x35, 0xb8, 0x31, 0x6f, 0x86, 0x6f, 0x9a, 0xd6, 0x59, 0xb9, 0x28,
  0x70, 0x91, 0x59, 0x97, 0xc3, 0x79, 0xa6, 0x56, 0x7f, 0x54, 0x5f, 0x75,
  0x69, 0x39, 0x74, 0x3c, 0x99, 0x73, 0x75, 0x58, 0x62, 0x38, 0x85, 0x50,
  0x78, 0x90, 0x78, 0x7b, 0x7a, 0x52, 0x7b, 0x5a, 0x75, 0x67, 0x6e, 0x8a,
  0x8c, 0x79, 0x81, 0x55, 0x95, 0x62, 0x71, 0x89, 0x6b, 0x4a, 0x4d, 0x63,
  0x91, 0x86, 0x7a, 0x6b, 0x50, 0x63, 0x1c, 0x5d, 0x95, 0x99, 0x9d, 0x97,
  0x84, 0x66, 0x36, 0x68, 0x98, 0x72, 0x76, 0x8c, 0xa6, 0x52, 0x46, 0x59,
  0x8c, 0x98, 0x5b, 0x93, 0x87, 0x84, 0x56, 0x5a, 0x69, 0x83, 0x77, 0x89,
  0x7a, 0x63, 0x8d, 0x5d, 0x73, 0x7f, 0x66, 0x8b, 0x8b, 0x86, 0xa5, 0x68,
  0x74, 0x90, 0x7d, 0x66, 0x80, 0x5e, 0x8f, 0x5e, 0x74, 0x83, 0x65, 0x71,
  0x78, 0x65, 0x7b, 0x6a, 0x59, 0x9a, 0x83, 0x64, 0x4f, 0x60, 0x5b, 0x93,
  0x8c, 0x8f, 0x77, 0x4f, 0x8d, 0x93, 0x5f, 0x66, 0x86, 0x78, 0x5a, 0x6f,
  0x9d, 0x57, 0x9b, 0x90, 0xad, 0xa7, 0x6e, 0x9b, 0xda, 0x33, 0xaf, 0x4f,
  0x91, 0x68, 0x56, 0xa1, 0xc1, 0x35, 0xbf, 0x26, 0x5b, 0x84, 0x73, 0x8f,
  0xd1, 0x58, 0xc4, 0x47, 0x68, 0x6c, 0x70, 0x7c, 0xb2, 0x66, 0x9f, 0x48,
  0xa3, 0x7f, 0x60, 0x7b, 0x70, 0x3a, 0x7d, 0x38, 0x86, 0x86, 0x8c, 0x7b,
  0x5c, 0x42, 0x65, 0x45, 0x7c, 0x95, 0x99, 0x6c, 0x8b, 0x59, 0x75, 0x67,
  0x8e, 0x89, 0x76, 0x79, 0x86, 0x6d, 0x87, 0x46, 0x94, 0x66, 0x60, 0x85,
  0x71, 0x4f, 0x68, 0x7b, 0xc6, 0x60, 0x81, 0x90, 0x5f, 0x6a, 0x3e, 0x56,
  0x86, 0x99, 0x7f, 0x88, 0x64, 0x50, 0x4e, 0x70, 0x77, 0x95, 0x84, 0x9d,
  0x9c, 0x70, 0x4b, 0x78, 0x84, 0x95, 0x66, 0x81, 0x64, 0x7d, 0x5e, 0x66,
  0x85, 0x9b, 0x84, 0x9b, 0x76, 0x70, 0x60, 0x4f, 0x74, 0x97, 0x7a, 0xa1,
  0xa4, 0x96, 0xad, 0x50, 0x5c, 0x7d, 0x7e, 0x61, 0x7f, 0x6e, 0x96, 0x80,
  0x66, 0x79, 0x76, 0x68, 0x97, 0x44, 0x64, 0x79, 0x70, 0x9f, 0x70, 0x72,
  0x54, 0x3b, 0x71, 0x79, 0x87, 0x93, 0x75, 0x6c, 0x98, 0x5f, 0x9a, 0xa5,
  0xa1, 0x76, 0x45, 0x70, 0x8f, 0x5f, 0xa0, 0x70, 0x9e, 0x83, 0x91, 0x87,
  0xb4, 0x5a, 0xcf, 0x4f, 0x96, 0x97, 0x71, 0x90, 0xcb, 0x21, 0xc1, 0x29,
  0x79, 0x84, 0x7b, 0x93, 0xd4, 0x41, 0x9e, 0x2a, 0x7c, 0x5e, 0x52, 0x8f,
  0xc6, 0x7c, 0x9f, 0x53, 0xa5, 0x84, 0x6a, 0x67, 0x78, 0x5a, 0x74, 0x3e,
  0x96, 0x78, 0x8a, 0x59, 0x45, 0x27, 0x81, 0x3d, 0x83, 0x5f, 0xa4, 0x6f,
  0x72, 0x66, 0x7c, 0x6e, 0x8b, 0x69, 0x72, 0x8b, 0x95, 0x56, 0x69, 0x40,
  0x93, 0x6f, 0x5e, 0x7a, 0x69, 0x46, 0x69, 0x55, 0xb4, 0x70, 0x8e, 0x86,
  0x40, 0x66, 0x5d, 0x62, 0x88, 0x9d, 0x98, 0x8b, 0x87, 0x71, 0x54, 0x71,
  0x72, 0x7a, 0x7b, 0xa0, 0x82, 0x72, 0x40, 0x60, 0x96, 0x9b, 0x6f, 0x8b,
  0x62, 0x9b, 0x5e, 0x6a, 0x7d, 0x92, 0x90, 0x8e, 0x87, 0x82, 0x74, 0x6a,
  0x7d, 0x94, 0x73, 0x84, 0xa7, 0x7f, 0x84, 0x7b, 0x6d, 0x8f, 0x6d, 0x61,
  0x86, 0x74, 0x9c, 0x80, 0x66, 0x95, 0x85, 0x6a, 0x8e, 0x4d, 0x84, 0x6c,
  0x68, 0x96, 0x96, 0x64, 0x70, 0x40, 0x64, 0x88, 0x85, 0x88, 0x7f, 0x61,
  0x84, 0x7b, 0x6d, 0x6e, 0xa6, 0xa5, 0x54, 0x8a, 0x7f, 0x65, 0x9c, 0x5d,
  0x9a, 0x87, 0x81, 0x8a, 0xb6, 0x48, 0xbb, 0x47, 0x86, 0x7a, 0x6a, 0x7e,
  0xb6, 0x28, 0xa0, 0x3d, 0x59, 0x80, 0x90, 0x91, 0xd7, 0x80, 0x9e, 0x44,
  0x73, 0x78, 0x56, 0x8b, 0xdc, 0x72, 0x84, 0x4f, 0x90, 0x76, 0x70, 0x85,
  0x74, 0x3c, 0x67, 0x4f, 0x90, 0x82, 0x71, 0x6f, 0x65, 0x37, 0x6f, 0x43,
  0x77, 0x79, 0x8d, 0x8d, 0x84, 0x6b, 0x80, 0x56, 0x82, 0x7a, 0x67, 0x81,
  0x70, 0x53, 0x65, 0x3a, 0xb1, 0x6f, 0x66, 0xa0, 0x65, 0x5e, 0x6d, 0x61,
  0xc0, 0x5f, 0x6e, 0x7f, 0x70, 0x7b, 0x35, 0x66, 0xa3, 0x73, 0x89, 0x95,
  0x7c, 0x6f, 0x63, 0x5f, 0x8a, 0x6b, 0x99, 0x9a, 0x94, 0x70, 0x6e, 0x81,
  0x81, 0x86, 0x84, 0x93, 0x7a, 0x6e, 0x5e, 0x72, 0x91, 0x88, 0x6c, 0x8e,
  0x87, 0xa1, 0x7d, 0x56, 0x6a, 0x90, 0x7b, 0x7b, 0x95, 0x83, 0x93, 0x70,
  0x68, 0x81, 0x87, 0x81, 0x80, 0x81, 0x67, 0x87, 0x6f, 0x97, 0x7e, 0x3e,
  0x74, 0x50, 0x7a, 0x71, 0x61, 0x8c, 0x95, 0x5f, 0x6d, 0x61, 0x76, 0x82,
  0x72, 0x87, 0x76, 0x62, 0x8b, 0x83, 0x82, 0x51, 0x8b, 0x75, 0x5e, 0x76,
  0xaa, 0x74, 0x6e, 0x79, 0xb0, 0xa0, 0x86, 0xa8, 0xad, 0x47, 0x97, 0x51,
  0x6a, 0xa4, 0x74, 0x87, 0xba, 0x36, 0xd9, 0x45, 0x6c, 0x7e, 0x7b, 0x70,
  0xe5, 0x6a, 0x91, 0x40, 0x81, 0x8c, 0x66, 0x7c, 0xb6, 0x6d, 0x9e, 0x69,
  0x97, 0x58, 0x63, 0x99, 0x65, 0x4b, 0x81, 0x45, 0x89, 0x77, 0x8c, 0x60,
  0x64, 0x55, 0x61, 0x60, 0x79, 0x60, 0x98, 0x66, 0x67, 0x63, 0x70, 0x33,
  0x72, 0x86, 0x91, 0x72, 0x72, 0x7b, 0x68, 0x40, 0xa2, 0x4f, 0x54, 0x86,
  0x70, 0x40, 0x44, 0x72, 0xad, 0x6e, 0x75, 0x89, 0x71, 0x61, 0x6c, 0x52,
  0x8b, 0x7a, 0x8d, 0x86, 0x6c, 0x71, 0x54, 0x6c, 0x71, 0x80, 0x74, 0x76,
  0x99, 0x63, 0x6e, 0x54, 0x7f, 0x6a, 0x72, 0x99, 0x7b, 0x61, 0x5d, 0x6d,
  0x74, 0x7e, 0x5b, 0x8c, 0x78, 0x78, 0x6a, 0x60, 0x59, 0xa8, 0x83, 0x7f,
  0xa4, 0x76, 0x93, 0x69, 0x7e, 0x90, 0x75, 0x78, 0x7d, 0x70, 0x90, 0x7b,
  0x58, 0x97, 0x75, 0x57, 0x76, 0x46, 0x8c, 0x73, 0x6c, 0xc6, 0x88, 0x6f,
  0x62, 0x4c, 0x93, 0x82, 0x89, 0xb0, 0x8a, 0x3b, 0x8b, 0xad, 0x8c, 0x57,
  0x8d, 0x8c, 0x4f, 0x7c, 0x89, 0x65, 0x80, 0x68, 0xa7, 0x88, 0x76, 0xaa,
  0xb2, 0x32, 0xac, 0x2b, 0x6f, 0x96, 0x87, 0x89, 0xce, 0x3f, 0xc8, 0x4b,
  0x5c, 0x92, 0x88, 0x78, 0xc8, 0x76, 0xa5, 0x3d, 0x7d, 0x70, 0x65, 0x88,
  0xc5, 0x68, 0x8f, 0x5b, 0x82, 0x6e, 0x60, 0x76, 0x80, 0x37, 0x78, 0x4e,
  0x94, 0x68, 0x95, 0x8d, 0x53, 0x3c, 0x5d, 0x3f, 0x74, 0x74, 0xa6, 0x77,
  0x86, 0x8e, 0x6f, 0x55, 0x90, 0x55, 0x70, 0x6b, 0x7c, 0x87, 0x7c, 0x31,
  0x9c, 0x87, 0x65, 0x9a, 0x63, 0x31, 0x52, 0x64, 0xbd, 0x5e, 0x6d, 0x91,
  0x46, 0x68, 0x3e, 0x5f, 0x8a, 0x70, 0x98, 0x8a, 0x65, 0x8b, 0x4b, 0x62,
  0x85, 0x70, 0x77, 0x99, 0x9d, 0x6b, 0x6c, 0x5b, 0x9d, 0x6c, 0x62, 0x73,
  0x62, 0x80, 0x57, 0x7c, 0x87, 0x8e, 0x6e, 0xa1, 0x8d, 0xb0, 0x84, 0x7d,
  0x93, 0x84, 0x81, 0x93, 0x9a, 0x7d, 0x83, 0x74, 0x58, 0xab, 0x8d, 0x6a,
  0x8a, 0x7c, 0x96, 0x84, 0x82, 0x94, 0x86, 0x54, 0x7e, 0x50, 0x60, 0x79,
  0x6b, 0xb2, 0x84, 0x50, 0x7b, 0x48, 0x75, 0x8d, 0x7e, 0x8f, 0x86, 0x57,
  0xaa, 0x6f, 0x83, 0x82, 0x70, 0x7d, 0x5e, 0x9c, 0x85, 0x54, 0x84, 0x7e,
  0xab, 0x9d, 0x7a, 0x9d, 0xb4, 0x53, 0x99, 0x53, 0x68, 0xac, 0x5a, 0xab,
  0xd3, 0x2b, 0xbc, 0x3d, 0x53, 0x6c, 0x8c, 0x8b, 0xd8, 0x65, 0x9b, 0x44,
  0x70, 0x8c, 0x4d, 0x9c, 0xac, 0x85, 0x82, 0x63, 0x8e, 0x6b, 0x53, 0x99,
  0x91, 0x4e, 0x6e, 0x47, 0x8b, 0x8d, 0x6f, 0x6d, 0x53, 0x54, 0x76, 0x3e,
  0x85, 0x57, 0x9e, 0x84, 0x6a, 0x71, 0x60, 0x40, 0x84, 0x82, 0x6f, 0x7b,
  0x8f, 0x92, 0x61, 0x44, 0x93, 0x58, 0x5d, 0x8c, 0x6f, 0x4b, 0x4e, 0x5e,
  0x9c, 0x7a, 0x72, 0x93, 0x59, 0x84, 0x46, 0x61, 0xae, 0x80, 0xa0, 0x8f,
  0x68, 0x88, 0x67, 0x61, 0x78, 0x78, 0x9a, 0x8e, 0x7e, 0x70, 0x4c, 0x48,
  0x95, 0x79, 0x78, 0x73, 0x7c, 0x79, 0x5e, 0x6c, 0x7e, 0x80, 0x85, 0x90,
  0x7e, 0x75, 0x82, 0x6c, 0x83, 0x98, 0x86, 0x7d, 0x7d, 0x7b, 0xa1, 0x67,
  0x6a, 0x97, 0x7a, 0x6a, 0x84, 0x8e, 0x9e, 0x69, 0x61, 0x89, 0x98, 0x55,
  0x8b, 0x67, 0x79, 0x7c, 0x67, 0x9f, 0x84, 0x44, 0x8a, 0x64, 0x65, 0x82,
  0x67, 0x80, 0x86, 0x70, 0x8c, 0x88, 0x79, 0x6d, 0x94, 0x81, 0x3d, 0x98,
  0x80, 0x56, 0x90, 0x61, 0xa1, 0x87, 0x5b, 0x91, 0x9c, 0x4c, 0xad, 0x38,
  0x6e, 0x8f, 0x87, 0xa5, 0xcd, 0x2e, 0xb0, 0x4d, 0x67, 0x98, 0x7b, 0x7a,
  0xb9, 0x6d, 0xd2, 0x45, 0x71, 0x96, 0x60, 0x86, 0xaa, 0x58, 0x7d, 0x59,
  0x71, 0x4b, 0x67, 0x79, 0x82, 0x5c, 0x68, 0x33, 0x82, 0x4f, 0x72, 0x74,
  0x4f, 0x4d, 0x65, 0x4b, 0x80, 0x61, 0x93, 0x88, 0x82, 0x62, 0x70, 0x30,
  0x97, 0x6e, 0x73, 0x7d, 0x81, 0x76, 0x63, 0x3c, 0x99, 0x6d, 0x44, 0x8d,
  0x57, 0x57, 0x3a, 0x4b, 0xa1, 0x6e, 0x67, 0x80, 0x53, 0x49, 0x60, 0x41,
  0x9a, 0x8f, 0x9b, 0x86, 0x77, 0x78, 0x56, 0x4b, 0x92, 0x7a, 0x81, 0x98,
  0x96, 0x62, 0x51, 0x63, 0x76, 0xad, 0x5d, 0x99, 0x77, 0x73, 0x62, 0x81,
  0x97, 0x81, 0x6a, 0x8d, 0x78, 0x9d, 0x87, 0x63, 0x8d, 0xa6, 0x75, 0x8e,
  0x87, 0x8b, 0x99, 0x83, 0x62, 0x95, 0x82, 0x82, 0x79, 0x7b, 0x86, 0x86,
  0x6a, 0xa8, 0x82, 0x61, 0x88, 0x5e, 0x78, 0x97, 0x73, 0x9c, 0x88, 0x3b,
  0x74, 0x60, 0x66, 0x7c, 0x79, 0x94, 0x8f, 0x40, 0x9c, 0x76, 0x98, 0x48,
  0x6f, 0x97, 0x6d, 0xac, 0x7c, 0x7e, 0x72, 0x7a, 0xa7, 0x82, 0x7c, 0xab,
  0x9c, 0x48, 0x9d, 0x5b, 0x65, 0x6d, 0x65, 0xb9, 0xe1, 0x37, 0xb0, 0x38,
  0x57, 0x95, 0x5a, 0xac, 0xc6, 0x73, 0xb8, 0x4d, 0x91, 0x6c, 0x66, 0x97,
  0xa8, 0x7c, 0x8f, 0x5e, 0x7e, 0x75, 0x46, 0x9b, 0x84, 0x41, 0x8a, 0x47,
  0x8c, 0x52, 0x65, 0x60, 0x59, 0x6a, 0x5f, 0x6e, 0x6f, 0x79, 0x89, 0x73,
  0x81, 0x8c, 0x4c, 0x42, 0x94, 0x6d, 0x72, 0x87, 0x70, 0x7a, 0x70, 0x47,
  0x8a, 0x75, 0x4f, 0x85, 0x5e, 0x43, 0x50, 0x58, 0xa0, 0x6d, 0x73, 0x6c,
  0x54, 0x64, 0x56, 0x50, 0x9c, 0x81, 0x93, 0xa1, 0x6d, 0xa4, 0x6c, 0x55,
  0x89, 0x7a, 0x6b, 0x6b, 0x93, 0x82, 0x61, 0x58, 0x97, 0x95, 0x81, 0x93,
  0x6c, 0x7e, 0x58, 0x6b, 0x7c, 0x97, 0x80, 0x7f, 0x7b, 0x8d, 0x77, 0x5f,
  0x7b, 0x98, 0x72, 0x74, 0x80, 0x5f, 0x98, 0x8a, 0x5a, 0xaf, 0x91, 0x51,
  0x81, 0x8d, 0xa6, 0x89, 0x7f, 0xa6, 0x6a, 0x49, 0x85, 0x5f, 0x72, 0x73,
  0x6b, 0x84, 0x92, 0x4c, 0x75, 0x55, 0x76, 0x7e, 0x9a, 0x98, 0x8f, 0x44,
  0x84, 0x5b, 0x90, 0x6b, 0x7e, 0x7f, 0x5c, 0x79, 0x8a, 0x79, 0x6f, 0x93,
  0xbc, 0x7c, 0x78, 0xc5, 0xc7, 0x2d, 0x91, 0x45, 0x60, 0x85, 0x4b, 0x91,
  0xe7, 0x52, 0xd6, 0x51, 0x64, 0x82, 0x72, 0xaa, 0xcb, 0x68, 0xa8, 0x4e,
  0x84, 0x70, 0x53, 0x86, 0x92, 0x6c, 0x9f, 0x51, 0x96, 0x7d, 0x48, 0x98,
  0x89, 0x66, 0x66, 0x3b, 0x6b, 0x71, 0x7d, 0x9e, 0x53, 0x5a, 0x5d, 0x68,
  0x69, 0x7d, 0xb0, 0x7b, 0x5b, 0x79, 0x62, 0x40, 0x92, 0x6f, 0x7f, 0x85,
  0x98, 0x62, 0x78, 0x5b, 0x97, 0x77, 0x3b, 0x9d, 0x6f, 0x39, 0x36, 0x55,
  0x90, 0x88, 0x88, 0xa6, 0x74, 0x69, 0x5f, 0x71, 0x98, 0x96, 0x9d, 0x7e,
  0x6c, 0x98, 0x64, 0x3f, 0x99, 0x84, 0x6a, 0x84, 0x7c, 0x84, 0x7a, 0x72,
  0x81, 0x97, 0x85, 0x98, 0x71, 0x71, 0x6e, 0x72, 0x87, 0x9c, 0x69, 0x97,
  0x84, 0x9f, 0x78, 0x8a, 0x6a, 0x92, 0x7b, 0x6e, 0x90, 0x7a, 0x9e, 0x97,
  0x6d, 0x92, 0x8b, 0x61, 0x96, 0x78, 0x8a, 0x95, 0x70, 0x98, 0x82, 0x49,
  0x89, 0x72, 0x6a, 0x6d, 0x6a, 0x91, 0x89, 0x1e, 0x77, 0x5d, 0x7c, 0x80,
  0x84, 0xad, 0x9e, 0x56, 0x99, 0x79, 0x5e, 0x73, 0x76, 0x62, 0x43, 0x7f,
  0x88, 0x6c, 0x73, 0x96, 0x9f, 0x7d, 0x58, 0xb5, 0xd4, 0x33, 0xa7, 0x57,
  0x72, 0x89, 0x77, 0x8b, 0xe8, 0x3d, 0xa2, 0x51, 0x5a, 0x83, 0x93, 0xaf,
  0xb8, 0x7f, 0xaf, 0x57, 0x63, 0x69, 0x43, 0xa5, 0x9c, 0x67, 0x84, 0x41,
  0x67, 0x69, 0x3a, 0xaf, 0x93, 0x44, 0x5a, 0x49, 0x72, 0x82, 0x7d, 0x95,
  0x64, 0x50, 0x68, 0x61, 0x75, 0x76, 0xa1, 0x88, 0x7a, 0x6d, 0x59, 0x64,
  0x8f, 0x6c, 0x78, 0x89, 0x8f, 0x7a, 0x7b, 0x69, 0x92, 0x71, 0x52, 0x85,
  0x7b, 0x53, 0x74, 0x5c, 0xa8, 0x76, 0x5c, 0x81, 0x72, 0x80, 0x74, 0x73,
  0x99, 0x8c, 0x9f, 0xad, 0x78, 0x8a, 0x7c, 0x6a, 0x7e, 0x7a, 0x62, 0x7d,
  0x79, 0x9c, 0x60, 0x71, 0x8c, 0x7b, 0x75, 0x97, 0x7d, 0x89, 0x8c, 0x64,
  0x81, 0x9a, 0x6d, 0x7f, 0x92, 0x76, 0x6d, 0x73, 0x80, 0x9f, 0x68, 0x89,
  0x7c, 0x8b, 0x94, 0x80, 0x61, 0xad, 0x7b, 0x64, 0x7b, 0x9b, 0x79, 0x92,
  0x78, 0x9b, 0x87, 0x85, 0x9b, 0x70, 0x67, 0x73, 0x67, 0xaf, 0x7d, 0x47,
  0x73, 0x5f, 0x72, 0x77, 0x80, 0x86, 0x95, 0x65, 0x73, 0x78, 0x62, 0x6b,
  0x6b, 0x6a, 0x55, 0x75, 0x9b, 0x87, 0x8c, 0x81, 0xa6, 0x5b, 0x65, 0x7e,
  0xd4, 0x57, 0x88, 0x59, 0x63, 0x70, 0x54, 0x99, 0xe0, 0x5b, 0xaa, 0x90,
  0x5d, 0x76, 0x6c, 0xa5, 0xd0, 0x5b, 0xb2, 0x6c, 0x71, 0x79, 0x48, 0x94,
  0xcc, 0x55, 0x89, 0x69, 0x6a, 0x79, 0x4a, 0x72, 0x9d, 0x4b, 0x83, 0x4a,
  0x5b, 0x62, 0x52, 0xa7, 0x65, 0x70, 0x7c, 0x64, 0x84, 0x5f, 0x8c, 0x89,
  0x71, 0x7b, 0x6e, 0x5f, 0x89, 0x81, 0x77, 0x98, 0xa0, 0x76, 0x79, 0x5e,
  0x92, 0x4c, 0x3c, 0x93, 0x64, 0x5d, 0x4a, 0x4d, 0x9c, 0x56, 0x74, 0x73,
  0x77, 0x89, 0x5e, 0x76, 0xa4, 0x9e, 0x9d, 0x89, 0x86, 0x8e, 0x7b, 0x54,
  0x8b, 0x8f, 0x6b, 0x49, 0x77, 0x77, 0x7b, 0x7a, 0x6f, 0x82, 0x7c, 0x89,
  0x6a, 0x89, 0x4b, 0x80, 0x9e, 0x96, 0x76, 0x71, 0x73, 0x7c, 0x64, 0x7f,
  0x7d, 0x7e, 0x6f, 0x8c, 0xa3, 0x7e, 0x77, 0x9c, 0x5e, 0x9c, 0x81, 0x74,
  0x80, 0x81, 0x82, 0x87, 0x7b, 0x94, 0x8e, 0x4f, 0x96, 0x8e, 0x77, 0x7c,
  0x67, 0x73, 0x82, 0x7d, 0x8c, 0x5f, 0x71, 0x80, 0x72, 0x8f, 0x75, 0x5a,
  0x67, 0xa6, 0x8c, 0x8e, 0x84, 0x80, 0x57, 0x85, 0x9d, 0xa0, 0x8c, 0x86,
  0x8f, 0x7d, 0x79, 0x88, 0x93, 0x56, 0x8f, 0x6a, 0x5f, 0x9b, 0x59, 0x74,
  0x94, 0x81, 0x94, 0x98, 0x6d, 0x62, 0x70, 0x76, 0x85, 0x6d, 0x7f, 0x98,
  0x5d, 0x5a, 0x46, 0x88, 0x9a, 0x2f, 0x80, 0x9e, 0x71, 0x79, 0x3b, 0x60,
  0x6d, 0x78, 0x6d, 0x72, 0x4e, 0x65, 0x5c, 0x78, 0x64, 0x7e, 0x75, 0x71,
  0x73, 0x63, 0x9a, 0x7d, 0x70, 0x50, 0x48, 0x83, 0x88, 0x67, 0x4d, 0x81,
  0x73, 0x5f, 0x7d, 0x77, 0x6d, 0x6a, 0x4d, 0x89, 0x79, 0x58, 0x4d, 0x72,
  0x7c, 0x70, 0x6b, 0x60, 0x6c, 0x76, 0x7f, 0x6d, 0x8a, 0x9f, 0x9b, 0x89,
  0x71, 0xa6, 0x9d, 0x6a, 0x79, 0x79, 0x7e, 0x9e, 0x72, 0x85, 0x93, 0x79,
  0x7b, 0xa0, 0x73, 0x73, 0x6e, 0x81, 0x61, 0x7a, 0x89, 0xa2, 0x6a, 0x5f,
  0x99, 0x61, 0x8c, 0x96, 0x8c, 0x80, 0x68, 0x7e, 0x8d, 0x80, 0xa3, 0x92,
  0x5d, 0x6c, 0x6d, 0x93, 0x9f, 0x78, 0x5a, 0x99, 0x60, 0x97, 0x61, 0x6f,
  0x9f, 0x9b, 0x82, 0x7f, 0x7a, 0x82, 0x6e, 0x82, 0x78, 0x84, 0x6b, 0x91,
  0x81, 0x92, 0x79, 0x8e, 0x66, 0x66, 0x70, 0x98, 0x70, 0x5f, 0x68, 0xa3,
  0xaa, 0x6b, 0xa0, 0x71, 0x69, 0xa2, 0x66, 0x6a, 0x9c, 0x7b, 0x8c, 0x79,
  0x5e, 0x7c, 0x91, 0x6b, 0x92, 0x68, 0x9e, 0xb0, 0x65, 0xa9, 0x87, 0x85,
  0xa7, 0x4b, 0x9a, 0x8a, 0x4c, 0x8f, 0x5b, 0x82, 0x97, 0x3d, 0x9c, 0x6f,
  0x67, 0x6b, 0x72, 0x79, 0x7f, 0x2b, 0x7e, 0x79, 0x5c, 0x4e, 0x59, 0x73,
  0x65, 0x82, 0x5d, 0x63, 0x62, 0x8d, 0x92, 0x8b, 0x69, 0x50, 0x52, 0x7d,
  0x60, 0x71, 0x6c, 0x51, 0x79, 0x20, 0x85, 0x8c, 0x7a, 0x70, 0x27, 0x51,
  0x68, 0x3e, 0x65, 0x69, 0x6a, 0x98, 0x73, 0x76, 0x7f, 0x55, 0x78, 0x5b,
  0x7d, 0x7a, 0xb4, 0x85, 0x74, 0x8a, 0x68, 0x5a, 0x76, 0x98, 0x83, 0x54,
  0x70, 0x50, 0x8a, 0x77, 0x6f, 0x99, 0x77, 0x60, 0x77, 0x56, 0x9a, 0x7a,
  0x8d, 0x8a, 0x65, 0x93, 0x7e, 0x76, 0x82, 0x97, 0x7f, 0x9d, 0x6b, 0x8b,
  0x83, 0x85, 0x90, 0x94, 0x70, 0xa6, 0x82, 0x7d, 0x93, 0x5d, 0x66, 0x97,
  0x58, 0x7f, 0x94, 0x92, 0x93, 0x66, 0x8a, 0x86, 0x7c, 0x8a, 0x7a, 0x5d,
  0x9f, 0x7b, 0x6f, 0x8f, 0x91, 0x6e, 0x8f, 0x94, 0x64, 0x92, 0x70, 0x7d,
  0x6b, 0x7f, 0x6d, 0x79, 0x50, 0x82, 0x59, 0x53, 0x79, 0x67, 0x79, 0x7f,
  0x70, 0x5f, 0x64, 0x54, 0x90, 0x60, 0x72, 0x96, 0x76, 0x56, 0x84, 0x82,
  0x5f, 0x84, 0x64, 0x8c, 0x64, 0x98, 0x5f, 0x6c, 0x59, 0x77, 0x6f, 0x73,
  0x79, 0x9a, 0x77, 0x58, 0xa0, 0x88, 0x66, 0x70, 0x70, 0x5a, 0x72, 0x82,
  0x83, 0x8e, 0x75, 0x82, 0x7c, 0x94, 0x7b, 0x88, 0x95, 0x63, 0x8d, 0x83,
  0x68, 0x74, 0x8f, 0x5d, 0x5b, 0x49, 0x7a, 0x90, 0x64, 0x67, 0x7d, 0x7c,
  0x7d, 0x79, 0x82, 0x7e, 0x85, 0x53, 0x81, 0x70, 0x80, 0x60, 0x74, 0x73,
  0x66, 0x98, 0x72, 0x7a, 0x62, 0x76, 0x84, 0x8d, 0x9c, 0x78, 0x75, 0x82,
  0x69, 0x72, 0x4b, 0x8f, 0x70, 0x9c, 0x73, 0x79, 0x6b, 0x6f, 0x5f, 0x7f,
  0x76, 0x83, 0x80, 0x72, 0x8b, 0x74, 0x73, 0x95, 0x50, 0x6c, 0x94, 0x5b,
  0x63, 0x4c, 0x61, 0x82, 0x91, 0x9a, 0x9a, 0x58, 0x76, 0x7f, 0x59, 0x78,
  0x79, 0x75, 0x7c, 0x75, 0x7f, 0x8d, 0x88, 0x7e, 0x8d, 0x7a, 0x73, 0x5a,
  0x6d, 0x79, 0x6b, 0x75, 0x83, 0x60, 0x7d, 0x78, 0x6b, 0x87, 0x78, 0x6f,
  0x68, 0x78, 0x8c, 0xa4, 0xa1, 0x72, 0x81, 0x81, 0x71, 0x82, 0x8d, 0x55,
  0x5a, 0x58, 0x75, 0xa4, 0x92, 0x6d, 0x65, 0x4f, 0x73, 0x9a, 0x77, 0xa2,
  0x81, 0xa4, 0x74, 0x99, 0x6f, 0x64, 0x86, 0xa6, 0x81, 0x62, 0x78, 0x6b,
  0x54, 0x81, 0x89, 0x7b, 0x52, 0x81, 0x7d, 0x6c, 0x6b, 0x64, 0x67, 0xa2,
  0x8c, 0x57, 0x79, 0x66, 0x63, 0x75, 0x7b, 0x9d, 0x78, 0x5c, 0x66, 0x68,
  0x75, 0x89, 0x7c, 0x99, 0x5f, 0x6b, 0x8a, 0x81, 0x6e, 0x53, 0x78, 0x88,
  0x8c, 0x66, 0x6a, 0x7d, 0x98, 0x84, 0x7a, 0x92, 0x89, 0x8c, 0x92, 0x5d,
  0x8b, 0x61, 0x78, 0x90, 0x7e, 0x66, 0x8f, 0x5a, 0x5b, 0x79, 0x89, 0x8a,
  0x60, 0x8a, 0x87, 0x75, 0x4a, 0x58, 0x74, 0x7c, 0x6b, 0x81, 0x9f, 0x6e,
  0x7b, 0x68, 0x66, 0x81, 0x69, 0x74, 0x9c, 0x5b, 0x91, 0x59, 0x87, 0x7e,
  0x5c, 0x7b, 0x85, 0x85, 0x6d, 0x92, 0x78, 0x5c, 0x57, 0x72, 0x79, 0x8c,
  0x5c, 0x80, 0x5c, 0x82, 0x5e, 0x66, 0x8d, 0x7d, 0x8e, 0x8b, 0x5b, 0x6f,
  0x7b, 0x7e, 0x76, 0x58, 0x84, 0x78, 0x6a, 0x7b, 0x84, 0x81, 0x73, 0x89,
  0x63, 0x99, 0x64, 0x6e, 0x7d, 0x85, 0x63, 0x6e, 0x80, 0x7a, 0x8c, 0x8e,
  0x90, 0x71, 0x6e, 0x94, 0x85, 0x66, 0x8e, 0xa9, 0x77, 0xa1, 0x51, 0x77,
  0x95, 0x50, 0x83, 0x78, 0x4a, 0x87, 0x64, 0xad, 0x67, 0x67, 0x84, 0x93,
  0x5a, 0x5a, 0x74, 0x92, 0x88, 0x77, 0x70, 0x96, 0x62, 0x91, 0x81, 0x95,
  0x8e, 0x57, 0x73, 0xa4, 0x4b, 0x77, 0x84, 0x6c, 0x98, 0x5f, 0x7a, 0x84,
  0x8b, 0x74, 0x69, 0x86, 0x51, 0x63, 0x4d, 0x9e, 0x8c, 0x84, 0x79, 0x64,
  0x3b, 0x84, 0x9d, 0xaf, 0xa2, 0x61, 0x89, 0x73, 0x50, 0x6d, 0x7b, 0x83,
  0xb6, 0x98, 0x9a, 0x81, 0x51, 0x58, 0xa0, 0x7f, 0x94, 0x5a, 0xac, 0x84,
  0x6b, 0x87, 0x7f, 0x7d, 0x6a, 0x75, 0x6e, 0x80, 0x9b, 0x7d, 0x79, 0xa2,
  0x7f, 0x6d, 0x6e, 0x83, 0x62, 0x4a, 0x75, 0x7f, 0x48, 0x89, 0x7f, 0x73,
  0x71, 0x72, 0x75, 0x6d, 0x75, 0x7d, 0x4e, 0x93, 0x6e, 0x81, 0x7d, 0x80,
  0x61, 0x51, 0x82, 0x83, 0x9c, 0x7e, 0x61, 0x7d, 0x6e, 0x64, 0x6b, 0x88,
  0x87, 0x6e, 0x5e, 0x6b, 0x8d, 0x6c, 0x7a, 0x6a, 0x7e, 0x5a, 0x64, 0x6e,
  0x51, 0x8b, 0x50, 0x91, 0x80, 0x79, 0x6a, 0x78, 0x99, 0x83, 0x63, 0x7d,
  0x73, 0x78, 0x55, 0x7e, 0x90, 0x82, 0x6d, 0xa1, 0x60, 0x5e, 0x74, 0x7b,
  0x72, 0x7d, 0x80, 0x93, 0x8b, 0x64, 0x7e, 0x77, 0x3f, 0x97, 0x7c, 0x9f,
  0xae, 0x7d, 0x52, 0x75, 0x48, 0x98, 0x6e, 0x82, 0x99, 0x54, 0x7a, 0x87,
  0x5f, 0x6c, 0x74, 0xaa, 0x92, 0x74, 0x66, 0x89, 0x54, 0x47, 0x63, 0x7d,
  0x82, 0x6f, 0x7c, 0x86, 0x9a, 0x58, 0x82, 0x69, 0x6b, 0x61, 0x7e, 0x8f,
  0xa5, 0x73, 0x8c, 0x71, 0x58, 0x74, 0x6f, 0x8e, 0xb1, 0x52, 0xa5, 0x64,
  0x39, 0x55, 0x7e, 0x85, 0xac, 0x6d, 0x93, 0x9d, 0x5b, 0x6e, 0x64, 0x9e,
  0xbb, 0x89, 0x80, 0x9b, 0x68, 0x6e, 0x95, 0x72, 0x9f, 0x4a, 0x90, 0x68,
  0x6e, 0x7c, 0x80, 0x72, 0x78, 0x5a, 0x6f, 0x9f, 0x83, 0x51, 0x5e, 0x6a,
  0x71, 0x7c, 0x93, 0x83, 0x6f, 0x69, 0x88, 0x51, 0x5e, 0x7a, 0x7f, 0x87,
  0x7e, 0x8a, 0x6c, 0x61, 0x6d, 0x6e, 0x83, 0x90, 0x7c, 0x69, 0x83, 0x6a,
  0x71, 0x85, 0x85, 0x65, 0xa1, 0x6d, 0x5b, 0x58, 0x7c, 0x6b, 0x4f, 0x65,
  0x5e, 0x65, 0x85, 0x5b, 0x77, 0x8c, 0x78, 0xae, 0x83, 0x7b, 0x7b, 0x4d,
  0x8c, 0x97, 0x69, 0x65, 0x85, 0x85, 0x56, 0x8f, 0x8a, 0x87, 0x7f, 0x8f,
  0x5f, 0x7c, 0x90, 0x7d, 0x5d, 0x82, 0x5b, 0x8f, 0x8f, 0x4d, 0x58, 0x82,
  0x42, 0x8b, 0x64, 0xa9, 0x83, 0x64, 0x7d, 0x79, 0x56, 0x9a, 0x5c, 0x81,
  0x71, 0x71, 0x83, 0x83, 0x62, 0x70, 0x59, 0xb9, 0x82, 0x5e, 0x66, 0x84,
  0x5d, 0x4d, 0x61, 0x63, 0x94, 0x49, 0x69, 0x99, 0x96, 0x7d, 0x76, 0x4d,
  0x5c, 0x7b, 0x83, 0x74, 0xac, 0x78, 0x77, 0x79, 0x71, 0x76, 0x5d, 0x70,
  0xb8, 0x7f, 0xa6, 0x7e, 0x52, 0x75, 0x7f, 0x7e, 0xc0, 0x6a, 0xb0, 0x65,
  0x40, 0x68, 0x6b, 0x79, 0xc3, 0x76, 0xb0, 0x7f, 0x58, 0x71, 0x6f, 0x84,
  0xbf, 0x71, 0x89, 0x6d, 0x77, 0x5f, 0xa1, 0x7f, 0x70, 0x6f, 0x8a, 0x72,
  0x91, 0x58, 0x7c, 0x67, 0x78, 0x7c, 0x81, 0x73, 0x6e, 0x77, 0x84, 0x62,
  0x66, 0x8b, 0x51, 0x7a, 0x84, 0x4f, 0x52, 0x5c, 0x78, 0x87, 0x78, 0x69,
  0xac, 0x65, 0x6d, 0x66, 0x73, 0x88, 0x67, 0xa1, 0x8f, 0x7a, 0x6b, 0x69,
  0x7d, 0x95, 0x73, 0x70, 0x64, 0x56, 0x8f, 0x56, 0x91, 0x84, 0x5d, 0x99,
  0x92, 0x6a, 0x58, 0x53, 0x73, 0x66, 0x87, 0x53, 0x8a, 0x90, 0x5e, 0x78,
  0x7e, 0x75, 0x75, 0x7b, 0x69, 0x56, 0x86, 0xaa, 0x41, 0x92, 0x7e, 0x97,
  0x92, 0x75, 0x6e, 0xa4, 0x5d, 0xa1, 0x8a, 0xa7, 0x9f, 0x5e, 0x70, 0x8b,
  0x4d, 0x8a, 0x70, 0x76, 0x94, 0x6a, 0x82, 0x69, 0x51, 0x5d, 0x45, 0x9b,
  0xa5, 0x90, 0x6b, 0x9b, 0x5b, 0x6a, 0x4e, 0x65, 0x80, 0x45, 0x87, 0x8d,
  0x93, 0x68, 0x74, 0x5b, 0x5d, 0x41, 0x52, 0x9e, 0x9d, 0x51, 0x8c, 0x79,
  0x40, 0x65, 0x88, 0x8c, 0xbe, 0x74, 0xc2, 0x80, 0x32, 0x73, 0x85, 0x98,
  0xb8, 0x52, 0xce, 0x75, 0x19, 0x45, 0x84, 0x66, 0xc5, 0x9a, 0xb0, 0x88,
  0x69, 0x69, 0x51, 0x7d, 0xba, 0x57, 0x98, 0x5a, 0x68, 0x52, 0x63, 0x58,
  0x70, 0x7f, 0x8a, 0x94, 0x7d, 0x58, 0x5f, 0x6d, 0x9d, 0x54, 0x82, 0x7e,
  0x77, 0x8c, 0x7b, 0x5d, 0x73, 0x81, 0x68, 0x7d, 0x7f, 0x84, 0x5f, 0x61,
  0x8b, 0x69, 0x58, 0x6f, 0x80, 0x5f, 0x69, 0x72, 0x62, 0x8b, 0x74, 0x84,
  0xa0, 0x64, 0x68, 0x80, 0x6e, 0x76, 0x73, 0x7e, 0x7c, 0x77, 0x95, 0x48,
  0x67, 0x63, 0x5f, 0x9f, 0x90, 0x60, 0x50, 0x4d, 0x8e, 0x5c, 0x6b, 0x62,
  0x75, 0x96, 0x5d, 0x85, 0x6e, 0x83, 0x82, 0x63, 0x54, 0x78, 0x8c, 0x75,
  0x49, 0x8b, 0x7a, 0x93, 0x90, 0x82, 0x70, 0x8a, 0x6f, 0xa8, 0x66, 0xbe,
  0x99, 0x53, 0x8e, 0x89, 0x69, 0x89, 0x64, 0x92, 0xa1, 0x68, 0x78, 0x91,
  0x72, 0x68, 0x69, 0xc5, 0x97, 0x5c, 0x90, 0x77, 0x5c, 0x4c, 0x65, 0x7e,
  0x8b, 0x63, 0x90, 0x83, 0xa9, 0x4e, 0x64, 0x58, 0x68, 0x58, 0x71, 0x80,
  0x9a, 0x77, 0x8b, 0x63, 0x59, 0x6a, 0x75, 0x89, 0xb4, 0x5b, 0xa1, 0xad,
  0x20, 0x75, 0x6b, 0x69, 0xb3, 0x70, 0xc4, 0x99, 0x0b, 0x55, 0x86, 0x6a,
  0xca, 0x68, 0x93, 0x7c, 0x49, 0x84, 0x5e, 0x66, 0x9e, 0x71, 0x67, 0x71,
  0x66, 0x8b, 0x5f, 0x88, 0x7b, 0x64, 0x8d, 0x5d, 0x58, 0x8b, 0x6d, 0x5d,
  0x85, 0x5b, 0x85, 0x7d, 0x6f, 0x58, 0x7f, 0x67, 0x8b, 0x6d, 0x6d, 0x7e,
  0x89, 0x54, 0x67, 0x66, 0x8d, 0x8b, 0x3f, 0x64, 0x7d, 0x70, 0x78, 0x62,
  0x6b, 0x64, 0x50, 0x8e, 0x96, 0x70, 0x50, 0x5c, 0x57, 0x8e, 0x3b, 0x63,
  0x71, 0x7e, 0x7b, 0x47, 0x56, 0x60, 0x56, 0xa0, 0x82, 0x8c, 0x73, 0x4c,
  0x91, 0x7a, 0x8c, 0x90, 0x86, 0x80, 0x5e, 0x65, 0x5a, 0x81, 0x55, 0x5c,
  0x4f, 0x75, 0x79, 0x7e, 0x4d, 0x97, 0x82, 0x9d, 0x91, 0x60, 0x64, 0x93,
  0x57, 0xb4, 0x7a, 0xab, 0x96, 0x5f, 0x7a, 0x7b, 0x6e, 0x7e, 0x40, 0x9c,
  0xa3, 0x78, 0x71, 0x93, 0x57, 0x72, 0x44, 0xb9, 0xb0, 0x77, 0x76, 0x87,
  0x69, 0x3b, 0x46, 0x72, 0x96, 0x5d, 0x79, 0x86, 0xa4, 0x5e, 0x89, 0x4a,
  0x65, 0x40, 0x8a, 0x84, 0xae, 0x31, 0x90, 0x55, 0x1f, 0x5a, 0x79, 0x7c,
  0xc7, 0x5a, 0xba, 0x8a, 0x2f, 0x64, 0x64, 0x75, 0xae, 0x63, 0xcc, 0x62,
  0x19, 0x3f, 0x7f, 0x74, 0xcc, 0x7b, 0xa4, 0x89, 0x5b, 0x60, 0x76, 0x91,
  0xad, 0x6f, 0x81, 0x5b, 0x7c, 0x83, 0x68, 0x83, 0x7b, 0x47, 0x8b, 0x6a,
  0x74, 0x79, 0x83, 0x65, 0x9a, 0x5f, 0x84, 0x84, 0x66, 0x6b, 0x6f, 0x65,
  0x84, 0x76, 0x6c, 0x79, 0x7c, 0x6c, 0x6d, 0x81, 0x74, 0x5d, 0x39, 0x8e,
  0x75, 0x59, 0x8e, 0x64, 0x8f, 0x69, 0x65, 0x97, 0x78, 0x4d, 0x6f, 0x6d,
  0x50, 0x6b, 0x48, 0x70, 0x90, 0x61, 0x6f, 0x51, 0x5a, 0x95, 0x65, 0x99,
  0x8a, 0x48, 0x82, 0x54, 0x7e, 0x77, 0x7a, 0x77, 0x7a, 0x7f, 0x65, 0x68,
  0x79, 0x7b, 0x6f, 0x5d, 0x67, 0x6b, 0x7d, 0x7c, 0x3b, 0x8b, 0x6b, 0x95,
  0x9c, 0x86, 0x6b, 0x87, 0x71, 0xd2, 0x53, 0xe9, 0x92, 0x4f, 0x66, 0x81,
  0x4d, 0x82, 0x47, 0xad, 0xa7, 0x7b, 0x71, 0x88, 0x62, 0x79, 0x4d, 0x97,
  0x91, 0x46, 0x6f, 0x8c, 0x68, 0x62, 0x69, 0x6a, 0x99, 0x7c, 0x9e, 0x9a,
  0xa1, 0x71, 0x6b, 0x58, 0x65, 0x3f, 0x7c, 0x92, 0xab, 0x4e, 0x9e, 0x57,
  0x4d, 0x3e, 0x89, 0x7d, 0xa0, 0x7d, 0xc3, 0x76, 0x06, 0x80, 0x87, 0x8d,
  0xc4, 0x71, 0xa8, 0x6b, 0x10, 0x42, 0x78, 0x75, 0xb2, 0x58, 0xae, 0x81,
  0x6c, 0x69, 0x64, 0x85, 0x9e, 0x5e, 0x8a, 0x6e, 0x79, 0x73, 0x6d, 0x87,
  0x66, 0x77, 0x77, 0x5c, 0x70, 0x6b, 0x8b, 0x6d, 0x7b, 0x65, 0x98, 0x8b,
  0x62, 0x60, 0x69, 0x6e, 0x7f, 0x87, 0x65, 0x75, 0x7f, 0x63, 0x82, 0x69,
  0x62, 0x79, 0x30, 0x6c, 0x84, 0x93, 0x6b, 0x68, 0x46, 0x86, 0x4b, 0x9d,
  0xac, 0x63, 0x72, 0x66, 0x72, 0x98, 0x54, 0x81, 0x68, 0x70, 0x5e, 0x6c,
  0x82, 0x7a, 0x5a, 0x84, 0x7c, 0x5d, 0x75, 0x5c, 0xae, 0x61, 0x73, 0x5a,
  0x6b, 0x80, 0x6c, 0x65, 0x5c, 0x8e, 0x6d, 0x5f, 0x54, 0x56, 0x86, 0x66,
  0x15, 0xae, 0x72, 0x9f, 0x94, 0x88, 0x77, 0x8d, 0x65, 0xbc, 0x68, 0xc4,
  0x99, 0x7b, 0x76, 0x86, 0x60, 0xa1, 0x45, 0xa2, 0xb0, 0x4f, 0x44, 0x83,
  0x6c, 0x65, 0x4c, 0xc2, 0x94, 0x49, 0x7f, 0x89, 0x5e, 0x49, 0x67, 0x6a,
  0x94, 0x84, 0x85, 0x8e, 0xa3, 0x55, 0x90, 0x56, 0x56, 0x53, 0x7b, 0x96,
  0xb2, 0x71, 0x98, 0x4e, 0x30, 0x6e, 0x81, 0x8c, 0xa7, 0x30, 0xb5, 0x66,
  0x27, 0x7b, 0x69, 0x86, 0xbd, 0x66, 0xc0, 0x63, 0x17, 0x5d, 0x75, 0x8b,
  0x9e, 0x6c, 0xc1, 0x8a, 0x60, 0x4d, 0x7e, 0x7a, 0x99, 0x40, 0x66, 0x67,
  0x71, 0x79, 0x77, 0x6b, 0x7e, 0x5c, 0x9c, 0x67, 0x60, 0x8f, 0x99, 0x86,
  0xa1, 0x43, 0x9e, 0x6f, 0x5a, 0x5f, 0x8d, 0x74, 0x83, 0x5a, 0x5d, 0x92,
  0x76, 0x61, 0x88, 0x7b, 0x59, 0x52, 0x60, 0x9a, 0x82, 0x64, 0x8e, 0x64,
  0x7e, 0x73, 0x46, 0xb3, 0x8e, 0x6e, 0x83, 0x72, 0x74, 0x8a, 0x58, 0x78,
  0x88, 0x70, 0x6d, 0x77, 0x61, 0x88, 0x73, 0x78, 0x8d, 0x52, 0x71, 0x69,
  0x90, 0x87, 0x7f, 0x77, 0x82, 0x7e, 0x82, 0x7d, 0x6d, 0x86, 0x7b, 0x49,
  0x44, 0x81, 0x75, 0x64, 0x20, 0x8e, 0x6e, 0xa3, 0x90, 0x65, 0x60, 0x8c,
  0x6b, 0xce, 0x6b, 0xe5, 0xa6, 0x5a, 0x65, 0x8c, 0x78, 0x86, 0x3c, 0xa7,
  0xa7, 0x72, 0x61, 0x8a, 0x5f, 0x5c, 0x5e, 0xbb, 0xc1, 0x72, 0x79, 0x83,
  0x70, 0x59, 0x78, 0x67, 0x96, 0x51, 0x83, 0xaa, 0xc7, 0x6d, 0x80, 0x5a,
  0x69, 0x71, 0x73, 0x9c, 0xb7, 0x59, 0xa8, 0x30, 0x2f, 0x75, 0x6e, 0x85,
  0xa7, 0x5d, 0x9f, 0x4c, 0x07, 0x4d, 0x88, 0x9a, 0xb2, 0x51, 0xbe, 0x76,
  0x26, 0x88, 0x88, 0x82, 0xaa, 0x5a, 0xc3, 0x89, 0x64, 0x4e, 0x78, 0x7b,
  0x99, 0x75, 0x80, 0x87, 0x84, 0x80, 0x7c, 0x5c, 0x70, 0x59, 0xa2, 0x4a,
  0x5d, 0x66, 0x98, 0x77, 0x84, 0x57, 0x9f, 0x8c, 0x7b, 0x6e, 0x81, 0x6d,
  0x8e, 0x52, 0x57, 0x6f, 0x90, 0x66, 0x8f, 0x95, 0x72, 0x57, 0x3e, 0x8d,
  0x76, 0x7d, 0x85, 0x5e, 0x82, 0x68, 0x4b, 0xa3, 0x91, 0x62, 0x93, 0x62,
  0x79, 0xa9, 0x62, 0x7e, 0x73, 0x71, 0x94, 0x66, 0x6d, 0x7f, 0x59, 0x73,
  0x80, 0x71, 0x7a, 0x6c, 0x7f, 0x8a, 0x84, 0x8e, 0x72, 0x97, 0x74, 0x76,
  0x69, 0x90, 0x65, 0x53, 0x5e, 0x78, 0x8c, 0x5d, 0x29, 0x92, 0x6b, 0xa5,
  0x97, 0x6d, 0x73, 0x74, 0x5a, 0xc3, 0x54, 0xd0, 0xaf, 0x67, 0x54, 0x94,
  0x87, 0x8b, 0x54, 0xaf, 0x9b, 0x6f, 0x49, 0xa9, 0x56, 0x6f, 0x65, 0xa7,
  0xa1, 0x88, 0x60, 0x91, 0x57, 0x4b, 0x7e, 0x6e, 0xa9, 0x7e, 0x84, 0x73,
  0xa0, 0x52, 0x9f, 0x60, 0x5d, 0x58, 0x6e, 0x85, 0xa7, 0x6b, 0x9a, 0x26,
  0x0a, 0x3d, 0x73, 0x8f, 0xab, 0x58, 0xb0, 0x5e, 0x18, 0x6b, 0x8c, 0x75,
  0xc0, 0x78, 0xa9, 0x4c, 0x01, 0x7c, 0x84, 0x66, 0xba, 0x7f, 0x96, 0x78,
  0x54, 0x5c, 0x79, 0x89, 0xa4, 0x60, 0x81, 0x56, 0x8e, 0x5c, 0x7f, 0x93,
  0x8d, 0x51, 0x8b, 0x5e, 0x5f, 0x82, 0x6f, 0x77, 0xa5, 0x80, 0x7d, 0x76,
  0x63, 0x7e, 0x78, 0x5c, 0x83, 0x66, 0x77, 0x6d, 0x8e, 0x6a, 0x83, 0x6d,
  0x5e, 0x7b, 0x4e, 0x84, 0xa3, 0x71, 0x9a, 0x6b, 0x7d, 0x8f, 0x43, 0x8c,
  0x9d, 0x5e, 0x6a, 0x88, 0x64, 0x89, 0x5a, 0x72, 0x76, 0x92, 0x91, 0x6c,
  0x95, 0x98, 0x61, 0x89, 0x88, 0x6b, 0x82, 0x5f, 0x82, 0xa1, 0x82, 0x60,
  0x66, 0x7e, 0x73, 0x5e, 0x86, 0x60, 0x88, 0x4f, 0x6f, 0x89, 0x6e, 0x6d,
  0x40, 0x9b, 0x74, 0xa1, 0x96, 0x57, 0x77, 0x8d, 0x5d, 0xcf, 0x73, 0xc5,
  0x9a, 0x59, 0x60, 0xa1, 0x79, 0x86, 0x5d, 0xca, 0x96, 0x47, 0x59, 0x82,
  0x45, 0x3d, 0x69, 0x98, 0xbd, 0x61, 0x5f, 0x91, 0x66, 0x64, 0x77, 0x6a,
  0x8d, 0x92, 0xa8, 0x8f, 0xa7, 0x7c, 0xa0, 0x6d, 0x70, 0x82, 0x8e, 0x81,
  0xaf, 0x60, 0xa1, 0x50, 0x1a, 0x4c, 0x7d, 0x87, 0x9f, 0x6a, 0xbd, 0x86,
  0x17, 0x6f, 0x84, 0x72, 0xba, 0x84, 0xba, 0x54, 0x43, 0x65, 0x86, 0x80,
  0xc2, 0x6d, 0xb8, 0x6a, 0x41, 0x7e, 0x4b, 0x7e, 0x9a, 0x3c, 0x80, 0x5a,
  0x7d, 0x90, 0x82, 0x9a, 0x98, 0x7f, 0x8e, 0x59, 0x4f, 0x8e, 0x7b, 0x62,
  0x9a, 0x58, 0x81, 0x7c, 0x6c, 0x7e, 0x98, 0x76, 0x8b, 0x70, 0x69, 0x7c,
  0x8f, 0x68, 0x89, 0x8a, 0x7f, 0x56, 0x5b, 0x85, 0x86, 0x5e, 0x93, 0x78,
  0x6e, 0x5f, 0x4c, 0x86, 0x86, 0x57, 0x72, 0x7a, 0x68, 0x80, 0x46, 0x79,
  0x88, 0x92, 0x76, 0x84, 0x80, 0x7f, 0x78, 0x77, 0x84, 0x5c, 0x7e, 0x70,
  0x91, 0x60, 0x93, 0x8e, 0x71, 0x78, 0x57, 0x52, 0x85, 0x64, 0x86, 0x68,
  0x61, 0x73, 0x8e, 0x7b, 0x1f, 0xb0, 0x82, 0xac, 0xa1, 0x56, 0x85, 0x86,
  0x6c, 0xa5, 0x5f, 0xbd, 0xb6, 0x46, 0x56, 0x83, 0x80, 0x71, 0x4a, 0xad,
  0xac, 0x55, 0x3d, 0x8f, 0x56, 0x7c, 0x5b, 0x99, 0xba, 0x74, 0x6c, 0x83,
  0x6b, 0x6d, 0x76, 0x74, 0xa4, 0x7f, 0xa9, 0x76, 0xa2, 0x59, 0xb9, 0x51,
